e </w>
s </w>
t h
i n
t </w>
d </w>
a n
e r
o n
y </w>
th e</w>
, </w>
e n
o r
， </w>
t i
a l
r e
. </w>
o </w>
。 </w>
a r
f </w>
g </w>
e d</w>
a </w>
o u
t o</w>
in g</w>
o f</w>
an d</w>
on </w>
e s</w>
s t
in </w>
r o
i c
al </w>
er </w>
a t
e c
i t
i s</w>
a t</w>
o m
i l
i s
an </w>
e l
a ti
a c
a s</w>
f or
e s
e m
o l
s i
c h
l y</w>
th at</w>
u r
en t</w>
a s
t r
u n
’ </w>
v e</w>
l </w>
en </w>
w h
th </w>
a m
— </w>
o w
a d
s u
p ro
i r
d e
a b
l i
l e</w>
c on
u s
t s</w>
for </w>
m </w>
i t</w>
l d</w>
h </w>
o p
o s
v er
l e
h a
a g
c ou
d i
c e</w>
ati on</w>
w i
t er
e x
“ </w>
b u
” </w>
c om
th e
i g
– </w>
n o
i m
a p
ar e</w>
k </w>
n e
on s</w>
or </w>
it y</w>
b e
、 </w>
b e</w>
i ti
u l
at e</w>
s h
2 0
re s
i es</w>
ti on</w>
wi th</w>
no t</w>
ar </w>
er s</w>
m a
c i
b y</w>
p e
p </w>
st r
ic </w>
p l
bu t</w>
m ent</w>
w or
n </w>
cou n
p ol
ec on
经 济
g o
q u
s e
h as</w>
国 家
it s</w>
ha ve</w>
美 国
m or
ou ld</w>
e u
w il
econ om
u c
f f
（ </w>
） </w>
u s</w>
l o
er e</w>
th er</w>
en t
p r
wil l</w>
i d
ir </w>
e v
p ar
th is</w>
p or
ow </w>
f ro
coun tr
p re
fro m</w>
w </w>
ch </w>
m an
c r
e st
% </w>
mor e</w>
the ir</w>
t a
p er
on e</w>
on al</w>
d s</w>
ig h
; </w>
0 </w>
t ur
eu ro
es s</w>
一 个
ou t</w>
al ly</w>
r a
in ter
p o
k e
的 </w>
t ed</w>
b l
s o</w>
the y</w>
a y</w>
y e
al l</w>
c l
re c
我 们
f in
g e</w>
v el
政 府
w as</w>
k e</w>
c re
w ould</w>
m e
d ing</w>
en ts</w>
ch in
中 国
i </w>
ic h</w>
m o
go ver
gover n
es t</w>
ab le</w>
c al</w>
t o
可 能
ar y</w>
他 们
i st
n ati
p u
欧 洲
i z
os t</w>
in g
m ar
em </w>
1 9
i v
wh ich</w>
问 题
a f
ti m
si d
s o
as t</w>
an ce</w>
th an</w>
e d
wor ld</w>
countr ies</w>
这 一
s p
en ce</w>
ro w
ou n
w e
at es</w>
u m
ou g
g r
s e</w>
om e</w>
) </w>
( </w>
t er</w>
us t</w>
en ti
世 界
un d
ou r
t ing</w>
20 0
at ed</w>
d is
k s</w>
el y</w>
chin a</w>
可 以
es e</w>
c an</w>
re g
b an
f l
ti ons</w>
pol iti
v i
al l
t u
b o
m in
g e
c </w>
pol ic
ci al</w>
o ther</w>
econom ic</w>
这 些
政 治
f u
政 策
全 球
b ec
d ec
a in
d em
g row
没 有
ne w</w>
c o
v er</w>
com m
i f</w>
man y</w>
in v
t y</w>
lo b
an t</w>
20 1
h e
on g</w>
s ec
be en</w>
k ing</w>
w e</w>
ati ons</w>
am p
s t</w>
ou s</w>
ag e</w>
g lob
an s</w>
nati onal</w>
增 长
s ti
m il
m ost</w>
f ac
b r
p os
ar s</w>
已 经
f r
是 </w>
s ur
en c
us e</w>
o b
a d</w>
con t
· </w>
i on</w>
s y
d uc
es s
en d
am er
主 义
a u
需 要
n ow</w>
g re
on ly</w>
m on
ch an
a y
amer ic
r is
govern ment</w>
ad e</w>
mar ke
其 他
： </w>
如 果
o c
il </w>
p e</w>
因 为
fin an
glob al</w>
以 及
市 场
th ere</w>
h is</w>
for m
su ch</w>
or s</w>
5 </w>
vel op
os e</w>
de velop
sh ould</w>
oug h</w>
grow th</w>
c ur
si on</w>
ev en</w>
al so</w>
f a
s er
n o</w>
: </w>
p res
il e</w>
o ver</w>
el </w>
ow n</w>
wh en</w>
上 </w>
p ow
ab out</w>
ol l
politi cal</w>
pe op
le ad
o g
银 行
ar d</w>
wh o</w>
cou ld</w>
ff ic
投 资
i f
igh t</w>
c ap
pu bl
peop le</w>
com p
金 融
su p
i a</w>
euro pe</w>
u e</w>
f ir
f e
ti ve</w>
社 会
v es</w>
in e</w>
en er
必 须
il ity</w>
0 0
euro pe
em ent</w>
wh at</w>
欧 盟
be t
th ese</w>
it ed</w>
ac c
m u
e p
s ome</w>
d r
re d</w>
tur e</w>
国 际
发 展
ar g
m ents</w>
pro v
力 </w>
h e</w>
cl u
iti es</w>
countr y</w>
inv est
w ere</w>
e f
in cre
o d</w>
finan cial</w>
ec t</w>
por t
t w
ye ars</w>
or d
支 持
incre as
d u
in t
an c
s el
应 该
em b
europe an</w>
de b
危 机
a v
不 是
wh ile</w>
d o
b le</w>
i d</w>
is t</w>
重 要
is m</w>
g er
了 </w>
影 响
en d</w>
al s</w>
领 导
a use</w>
tim e</w>
这 样
地 区
cur r
our </w>
en g
pre sid
at ing</w>
an d
大 的
polic y</w>
econom y</w>
它 们
因 此
si a</w>
a in</w>
ma y</w>
中 </w>
am e</w>
w el
？ </w>
on g
d o</w>
? </w>
cr is
li ke</w>
m ust</w>
com e</w>
e g
inter national</w>
in de
re s</w>
通 过
货 币
in di
re l
c en
ar ly</w>
oun d</w>
事 实
时 </w>
2 </w>
a k
str uc
1 </w>
li on</w>
und er
in to</w>
por t</w>
所 有
ti c
ex p
t ec
； </w>
d es
� </w>
ha d</w>
li m
u p</w>
ic al</w>
ac k</w>
st ates</w>
x </w>
mu ch</w>
sti tu
wi th
认 为
o ver
or y</w>
dem o
su m
sy st
ac h
ac e</w>
t e</w>
i an</w>
总 统
d ay</w>
r us
w ay</w>
民 主
an s
pow er</w>
u p
g d
res p
th re
e -
ati ve</w>
th em</w>
chan ge</w>
l ess</w>
pro duc
来 </w>
sh i
人 </w>
l a
方 面
尽 管
em s</w>
m is
组 织
cou r
h el
mon e
美 元
demo cr
c or
成 为
cris is</w>
bec ause</w>
si ve</w>
in clu
el ec
un ited</w>
ic es</w>
af ter</w>
ye ar</w>
pl o
0 年
e qu
提 供
r ic
c er
h igh
计 划
ig n</w>
publ ic</w>
b il
b as
ti c</w>
部 分
现 在
无 法
问题 </w>
ol d</w>
eu </w>
自 己
这 个
i al</w>
包 括
fir st</w>
th ose</w>
英 国
an y</w>
说 </w>
n or
g h
wh ere</w>
ab ility</w>
sec ur
t re
b er
at t
enc y</w>
许 多
le ar</w>
ac h</w>
进 行
ou t
mo d
am </w>
导 致
公 司
改 革
s ol
pro bl
al iz
marke t</w>
目 标
ol og
人 们
实 现
贸 易
ma in
ic e</w>
开 始
e ff
情 况
解 决
l ed</w>
su l
增 加
o f
d e</w>
就 是
3 </w>
h ow</w>
罗 斯
8 </w>
we en</w>
能 够
bet ween</w>
欧 元
tw o</w>
如 此
it e</w>
ff er
债 务
p h
w ar</w>
ent ly</w>
de f
自 由
p op
v en
americ a</w>
d om
这 种
presid ent</w>
st ate</w>
正 在
j ust</w>
德 国
日 本
fu l</w>
ac y</w>
化 </w>
cont in
in fl
j ap
ing s</w>
cap it
cen tr
俄 罗斯
tr ans
ev er</w>
ver y</w>
shi p</w>
p s</w>
安 全
su b
ad v
as s
g ener
c c
th r
ay s</w>
d ic
m s</w>
s en
l ong
ur e</w>
b el
印 度
的 一
vi e
resp on
er n</w>
is h
bo th</w>
后 </w>
f i
c es</w>
b us
外 </w>
n ed</w>
机 构
企 业
tr ade</w>
re qu
i e
l ow
收 入
f un
性 </w>
oug h
4 </w>
s in
wel l</w>
带 来
的 人
ser v
ne ed</w>
pop ul
的 经济
19 9
con tr
c an
si g
财 政
ter s</w>
amp ;</w>
& amp;</w>
ati c</w>
res s</w>
so ci
n ing</w>
deb t</w>
7 </w>
ban k</w>
风 险
获 得
to day</w>
as e</w>
le g
主 要
m emb
ac t</w>
im port
ag re
enti al</w>
ag ain
again st</w>
re sul
发 生
ti es</w>
li k
斯 坦
ou s
什 么
inde ed</w>
ma j
ist s</w>
k ers</w>
国家 </w>
l ast</w>
al ity</w>
invest ment</w>
at er</w>
者 </w>
em plo
syst em</w>
sp ec
develop ment</w>
之 间
e ar
一 些
事实 上</w>
b en
任 何
su cc
行 动
年 </w>
世 纪
a st
lead ers</w>
i ous</w>
长 期
wor k</w>
结 果
v o
但 是</w>
伊 朗
in stitu
ter m</w>
po si
v al
secur ity</w>
$ </w>
关 系
持 续
要 求
t or</w>
rus sia</w>
t ly</w>
he al
for e
f re
is e</w>
t en</w>
k ed</w>
th ing</w>
工 作
for m</w>
eff ec
h n
govern ments</w>
技 术
存 在
mil it
那 些
im e</w>
prov id
amp le</w>
人 的
ban ks</w>
y ing</w>
il l
sin ce</w>
an g
t ary</w>
基 础
下 </w>
6 </w>
ar m
g iv
st e
作 为
is l
目 前
to o</w>
marke ts</w>
comm un
ma ke</w>
lik ely</w>
l ar
si ble</w>
l l</w>
re ad
is h</w>
c u
is ra
那 么
研 究
资 本
us ed</w>
bec ome</w>
r ate</w>
per i
an ti
ex ample</w>
这样 的
st s</w>
en ding</w>
国家 的
ffic i
c ar
un </w>
到 了
centr al</w>
未 来
sur e</w>
ge t</w>
p p
生 产
v ing</w>
c a
em er
sup port</w>
成 功
tec hn
利 亚
t e
稳 定
以 色
h u
以色 列
rec ent</w>
emplo y
不 会
ti v
f ar</w>
采 取
点 </w>
h ar
用 </w>
联 合
at eg
d ed</w>
ke y</w>
甚 至
jap an</w>
造 成
更 加
i m</w>
9 </w>
ta in
import ant</w>
l arg
ye t</w>
en s</w>
so cial</w>
ec ted</w>
inter est</w>
ben ef
sti ll</w>
c ent
并 不
ord er</w>
th er
be ing</w>
th en</w>
p ly</w>
最 近
l ong</w>
法 国
po in
r ates</w>
过 去
is su
s ou
milit ary</w>
中 的
ap pro
特 别
价 格
时 间
le vel
polic ies</w>
ter r
u m</w>
th ough</w>
对 于
il y</w>
更 多
op er
thr ough</w>
样 </w>
一 种
建 立
b al
on -
决 定
也 是
ener g
pr iv
m id
str ateg
不 同
f er
b i
而 且
u tion</w>
成 员
ch all
n uc
m an</w>
比 如
v ir
合 作
利 益
国 内
di ffer
fu ture</w>
ch o
americ an</w>
o t
do es</w>
est s</w>
十 年
sig n
emer g
re v
inclu ding</w>
战 争
性 的
an n
l ing</w>
规 模
un ion</w>
re as
如 何
保 护
b </w>
h ol
sh or
indi a</w>
pro c
m at
f ul
同 时
并 且
ing ly</w>
g u
chin ese</w>
f is
领导 人
read y</w>
with out</w>
但 是
at ely</w>
si ons</w>
的 是</w>
om </w>
cont ro
for e</w>
如 今
力 的
econom ies</w>
产 生
严 重
选 择
新 的
s ame</w>
ig h</w>
s a
反 对
教 育
历 史
gd p</w>
意 味
一 直
in du
p a
只 有
fa il
o k</w>
挑 战
ef for
energ y</w>
vel y</w>
继 续
st ar
希 望
面 临
af ric
ta ke</w>
capit al</w>
t ar
g g
com pe
公 共
p ur
ir an</w>
央 行
拉 克
t -
j u
tic ul
能 源
法 </w>
techn olog
d own</w>
ed uc
nuc lear</w>
se t</w>
出 现
h ist
k n
行 为
an ts</w>
c al
h igh</w>
度 </w>
水 平
fore ign</w>
他们 的
ab ly</w>
con sid
威 胁
ger many</w>
me di
u res</w>
意味 着
m ight</w>
会 </w>
und er</w>
ow ing</w>
b re
美国 的
an other</w>
v is
bus in
ma in</w>
d el
c lim
or g
fis cal</w>
西 方
环 境
be g
然 </w>
协 议
indu str
利 率
if ic
r ight</w>
ta x</w>
i de
si st
em p
国 的
i ve</w>
giv en</w>
su st
bu il
om e
选 举
si m
i bu
in come</w>
re al</w>
pr ices</w>
令 人
l in
气 候
maj or</w>
m ade</w>
mone tary</w>
lar ge</w>
c oll
um p</w>
生 活
不 能
c all
措 施
实 际
employ ment</w>
方 案
ent al</w>
希 腊
ex c
ir e</w>
reg ul
表 明
j o
ex t</w>
er ship</w>
实 施
成 本
er al</w>
e t</w>
par ticul
con sum
or e
o od</w>
部 门
年 的
an ds</w>
最 终
人 民
竞 争
战 略
bet ter</w>
化 的
or ity</w>
下 降
ver s
提 高
al ready</w>
go od</w>
政策 </w>
bil lion</w>
似 乎
ac coun
消 费
ab l
re main
特 朗
heal th</w>
min ist
par ty</w>
大 </w>
这 是
拥 有
sid e</w>
l it
此 外</w>
u al</w>
ch il
系 统
学 家
l ab
欧元 区
tr ad
控 制
di rec
特朗 普
tur n</w>
curr ent</w>
亿 美元
ur ing</w>
原 因
接 受
国 </w>
i b
如此 </w>
h um
am a</w>
probl em</w>
ris k</w>
伊 斯
di d</w>
u es</w>
z one</w>
e as
20 </w>
ra ther</w>
b ro
还 是
h ou
mid d
ed ed</w>
r igh
tr ump</w>
pro gr
em ents</w>
k ore
ad d
伊斯 兰
ti onal</w>
am ong</w>
需 求
t le</w>
上 的
cour se</w>
t ors</w>
利 </w>
y -
im p
多 数
resul t</w>
, 00
亚 洲
par t</w>
时 候
fac t</w>
资 产
f t</w>
al -
comp an
e ds</w>
l ow</w>
基 金
他 的
gd p
不 仅
ti on
j ob
谈 判
au th
qu es
服 务
ac tion</w>
w s</w>
改 变
方 式
t en
t ow
c s</w>
dec is
cre d
和 平
clim ate</w>
in f
li g
b er</w>
l ine</w>
du ce</w>
s m
》 </w>
gr ou
ul t</w>
《 </w>
一 步
为 了
form s</w>
ar ab
ur y</w>
巴 马
随 着
can not</w>
j ec
of ten</w>
不 可
冲 突
dem and</w>
un i
是 否
p end
ta in</w>
f oll
hel p</w>
w ays</w>
奥 巴马
s econ
联 盟
re duc
n s</w>
v id
be fore</w>
r i
阿 拉
w ar
si an</w>
wh y</w>
承 诺
关 键
或 者
po t
pro f
sust ain
军 事
in c
pu t</w>
b ar
y p
as h</w>
来 自
g ress</w>
外 交
ag es</w>
reg i
posi tion</w>
资 源
f ur
wh e
a k</w>
ci p
出 </w>
有 效
ap pe
仍 然
c ul
ic s</w>
pos ed</w>
s ome
非 常
非 洲
y ou
th ers</w>
enc es</w>
sou th</w>
ro s
减 少
体 系
im pl
ie ve</w>
ow s</w>
sel f</w>
降 低
的 政治
管 理
isra el</w>
e ast</w>
6 0</w>
p al
a re
a ff
r up
thre e</w>
同 样
资 金
人 口
o il</w>
soci e
a q
institu tions</w>
委 员
b or
chan g
是 在
r ul
n ess</w>
whe ther</w>
从 而
comm it
li f
reg ion</w>
19 8
pu t
伊 拉克
iz e</w>
l at
b ack</w>
s ci
得 到
a il
long -
由 于
因此 </w>
使 用
in d</w>
而 不是
sec tor</w>
价 值
ough t</w>
共 同
ir aq
r u
org an
t al
d uring</w>
a sia</w>
ar ound</w>
ob ama</w>
hum an</w>
几 乎
p ec
iti z
n um
mor e
受 到
真 正
aliz ation</w>
动 </w>
ent ed</w>
euro zone</w>
more over</w>
mil lion</w>
即 使
增长 </w>
est abl
的 情况
阿拉 伯
自己 的
mone y</w>
叙 利亚
联合 国
w om
力 量
ap os
no v
监 管
& apos
ist an</w>
大 部分
con cer
还 有
一 次
st at
compan ies</w>
increas e</w>
qu ot
requ i
ro le</w>
重 新
影响 </w>
tur al</w>
si mil
完 全
的 是
h ow
p ast</w>
s ha
me as
li es</w>
经济 体
compe ti
就 业
出 口
th in
publ ic
项 目
fe w</w>
le ast</w>
def ic
劳 动
土 耳
minist er</w>
pro mis
our ces</w>
n ext</w>
土耳 其
priv ate</w>
ous ly</w>
e ver
en ing</w>
类 似
和 其他
educ ation</w>
i ally</w>
bas ed</w>
lit tle</w>
midd le</w>
各 国
因 素
democr acy</w>
考 虑
sy r
iz ation</w>
创 造
por ts</w>
for ce</w>
gre at</w>
t or
的 最
虽 然
a im
ci v
移 民
有 可能
石 油
i str
en vir
port un
op portun
sign ific
pos sible</w>
envir on
其 中
li ber
pre v
话 </w>
h al
ne eded</w>
i ev
en e
op </w>
how ever</w>
st ability</w>
high er</w>
o ffic
struc ture</w>
里 </w>
参 与
ig r
under st
也 许
决 策
者 的
tim es</w>
中国 的
b ility</w>
man ag
不 断
c itiz
之 一
c ase</w>
n ec
th us</w>
con fl
出 了
保 持
develop ing</w>
st u
程 度
援 助
s ed</w>
相 反
di ffic
确 保
t n
righ ts</w>
se qu
& quot
&quot ;</w>
m igr
probl ems</w>
appro ach</w>
al ism</w>
as h
ma king</w>
an ding</w>
go ti
某 些
ic ally</w>
sp ending</w>
ne eds</w>
lo c
c lear</w>
进 一步
&apos ;
前 </w>
es pec
espec ially</w>
f oc
infl ation</w>
confl ic
ish ed</w>
re form</w>
变 得
w r
制 </w>
o ff
1 0
secon d</w>
越 来
proc ess</w>
poin t</w>
afric a</w>
越来 越
se ver
尔 </w>
地 方
d oll
自 身
ha pp
dom es
pal est
帮 助
agre ement</w>
ad es</w>
目标 </w>
破 坏
避 免
5 0</w>
ris e</w>
结 构
nor th</w>
k es</w>
制 度
o thers</w>
h er</w>
tow ard</w>
pr is
变 化
作 用</w>
ac k
n at
re pres
恐 怖
min istr
b ur
c ed</w>
设 施
democr atic</w>
pr ice</w>
pl ace</w>
iti on</w>
的 国家
基 本
anc es</w>
vi ol
贷 款
超 过
v ed</w>
责 任
e p</w>
o ds</w>
ag o</w>
call ed</w>
you </w>
ne goti
m us
busin ess</w>
wom en</w>
iz ed</w>
remain s</w>
fr ance</w>
地 </w>
w est</w>
cr iti
st or
领 域
是 一个
了 一
h op
0年 代
心 </w>
赤 字
&apos; s</w>
同 时</w>
m e</w>
中 东
关 注
d en
之间 的
rel ati
e k</w>
根 本
位 </w>
发 达
elec tion</w>
p er</w>
fr on
al most</w>
th s</w>
kore a</w>
domes tic</w>
str ong</w>
将 会
的 大
iraq </w>
d er</w>
at s</w>
19 7
m er
多 </w>
v e
pe ace</w>
巴 勒
res ear
l os
th ir
巴勒 斯坦
as s</w>
cent ury</w>
me ans</w>
今 天
5 年
都 是
chall eng
好 的
with in</w>
ta x
出 的
re forms</w>
grow ing</w>
el l
des p
模 式
u k
vie w</w>
取 得
effor ts</w>
民 族
武 器
b on
il i
制 定
fur ther</w>
平 等
c ol
数 据
w est
ow ed</w>
v ic
st -
bu d
level </w>
f am
int e
dec ades</w>
co sts</w>
条 件
关 于
过 程
权 </w>
com es</w>
differ ent</w>
c le
po or</w>
失 业
pl ac
来 说</w>
en se</w>
desp ite</w>
pro t
d y</w>
og n
rec ogn
论 </w>
表 现
具 有
pro tec
以 来
contin ue</w>
inte gr
法 律
改 善
er ed</w>
citiz ens</w>
约 </w>
3 0</w>
comp le
contro l</w>
form ation</w>
ig n
la w</w>
l and</w>
curr ency</w>
相反 </w>
公 民
现 实
知 道
民 众
rev ol
当 前
isl am
的 新
an y
in iti
f und
独 立
n on-
在 于
ec e</w>
of f</w>
ap </w>
刺 激
通 胀
ever y
re main</w>
利 用
i ed</w>
城 市
计划 </w>
i p
memb ers</w>
pr ime</w>
我们 的
a z
se ems</w>
k en</w>
s k
m ul
家 庭
贫 困
发展 中
t t
popul ation</w>
long- term</w>
tiv ity</w>
特别 是
id ence</w>
pot ential</w>
ver age</w>
传 统
increas ingly</w>
e very</w>
会 议
pr in
us ing</w>
lab or</w>
fre e</w>
res er
革 命
危 险
相 当
s ing
大 量
/ </w>
势 </w>
t un
benef its</w>
emb er</w>
e th
结 束
con di
e ach</w>
particul arly</w>
只 是
联 储
个 人
effec tive</w>
r ap
预 算
状 况
diffic ult</w>
维 持
言 </w>
regi onal</w>
en ough</w>
gh t</w>
# </w>
provid e</w>
acc or
与 此
b est</w>
共 和
美国 </w>
wor kers</w>
gre ater</w>
p ay
就 会
per s
首 先
ad ministr
y n
c are</w>
信 息
p en
pr i
tre at
事 件
serv ices</w>
b ra
果 </w>
re fl
memb er</w>
美 联储
it self</w>
委员 会
con stitu
ques tion</w>
s es</w>
i ther</w>
ex peri
en ed</w>
w a
rec ently</w>
应 对
fac e</w>
acc ep
th em
,00 0</w>
p ed</w>
emerg ing</w>
朝 鲜
dr en</w>
至 少
chil dren</w>
私 人
ex pl
par tn
anc ed</w>
ch ar
in nov
co oper
c amp
当 然</w>
le d
d on</w>
politi cs</w>
c ost</w>
reg ime</w>
相 关
子 </w>
socie ty</w>
n al</w>
s av
两 个
s pe
率 </w>
d ra
gre ece</w>
m y</w>
indi vid
terr or
west ern</w>
医 疗
in ste
palest in
on ce</w>
lif e</w>
g o</w>
form er</w>
long er</w>
res ources</w>
hist ory</w>
整 个
in ation</w>
时 代
inter ests</w>
全 世界
str eng
for ces</w>
sel ves</w>
发 现
par ti
8 年
ar ds</w>
而 是
上 述
健 康
num ber</w>
sh are</w>
tur key</w>
cor por
可能 会
inf ra
at ors</w>
ros s</w>
av o
ter ms</w>
g en
es sion</w>
直 接
创 新
to ge
推 动
ne ver</w>
toge ther</w>
克 兰
an t
w ard</w>
20 世纪
规 则
fin ance</w>
上 升
繁 荣
新 兴
确 定
sh if
e ur
inste ad</w>
u ed</w>
债 券
infra structure</w>
乌 克兰
succ ess
第 二
尼 亚
很 多
s af
ro w</w>
resear ch</w>
nec ess
sh ar
st and
nati on
low er</w>
s h</w>
支持 </w>
inde pend
结果 </w>
税 收
strateg y</w>
基础 设施
s ay</w>
代 表
fun d</w>
sm all</w>
试 图
contr ibu
f -
su gg
im f</w>
cer tain
ha ps</w>
per haps</w>
及 其
infl u
重要 的
re ly</w>
ag ain</w>
成员 国
斯 </w>
报 告
错 误
成 了
平 衡
尤 其
imp act</w>
re duce</w>
end ed</w>
i ons</w>
r y</w>
pro gress</w>
d at
ur al</w>
le ft</w>
人 类
200 8</w>
巴 基
t able</w>
er ing</w>
1 0</w>
we ak
相 对
el s</w>
pre c
巴基 斯坦
comm on</w>
极 端
巨 大的
ex tre
如今 </w>
d on
风险 </w>
埃 及
us es</w>
f ed
reas on</w>
用 于
con sequ
比如 </w>
后 的
auth or
公 众
m al
po ver
限 制
ris ks</w>
才 能
sustain able</w>
job s</w>
ab il
accor ding</w>
j ect</w>
m ental</w>
invest ors</w>
日 益
arab </w>
必 要
val ue</w>
p ak
z e</w>
l es</w>
事 </w>
c ing</w>
syr ia</w>
uk ra
acc ess</w>
in e
根 据
h ard</w>
fund am
r ati
m d
d ou
h old</w>
所 谓
h im</w>
camp a
me an
d -
sen se</w>
lo cal</w>
a ir
le ad</w>
le ar
穆 斯
s ing</w>
官 员
可 持续
de ter
ris ing</w>
am s</w>
conflic t</w>
lo o
陷 入
选 民
issu es</w>
u ally</w>
se e</w>
we al
运 动
穆斯 林
cl os
制 造
不 再
commun ity</w>
t ting</w>
或 许
来 的
ol </w>
h er
challeng es</w>
c y
w ant</w>
证 明
administr ation</w>
eur o</w>
tr ue</w>
un employment</w>
识 到
一 样</w>
lead ership</w>
fr en
tr a
失 败
依 然
能 力
as es</w>
h am
di </w>
cre ate</w>
politi ci
标 准
progr am</w>
ex change</w>
mo v
s w
y s
p ing</w>
thir d</w>
eg yp
ser ious</w>
主义 </w>
意 大
nati ons</w>
5 0
总 理
ess es</w>
经济 的
con c
布 什
them selves</w>
衰 退
tu ally</w>
ow n
更 为
理 解
mul ti
p tion</w>
欧洲 央行
重要 </w>
做 出
sim ply</w>
c ally</w>
l s</w>
s ch
现 代
i ans</w>
in es</w>
ag ing</w>
金融 危机
科 学
o -
不 可能
欧洲 的
难 民
达 到
anti -
交 易
进 步
关系 </w>
j us
ne t</w>
挑战 </w>
un ti
pro ve</w>
cred it</w>
明 确
technolog y</w>
的 时候
方面 </w>
活 动
s cho
r un</w>
bel ieve</w>
unti l</w>
en tion</w>
难 以
大 规模
一 场
反 应
y oun
意 义
res t</w>
es tim
唯 一
signific ant</w>
k now</w>
普 京
on d</w>
产 品
商 品
解 释
polic y
政府 的
pow er
爆 发
pos e</w>
e arly</w>
r an
商 业
we ap
经济 学家
预 测
s it
与此 同时</w>
level s</w>
en sive</w>
si bility</w>
gener al</w>
拒 绝
更多 的
机 会</w>
十 分
观 点
的 话</w>
相 信
com b
it al
res ol
依 赖
fren ch</w>
期 </w>
p ay</w>
ma kers</w>
p at
进 入
accoun t</w>
大 多数
f all
v ar
ag g
德 </w>
并 没有
机 会
im prov
然 而
jus ti
h ome</w>
sup por
con f
ar r
达 成
en ge</w>
pover ty</w>
问题 的
se ts</w>
权 力
a red</w>
引 发
理 由
simil ar</w>
br iti
de al</w>
pur su
融 资
meas ures</w>
ffici ent</w>
chall enge</w>
doll ar</w>
o ffici
w ise</w>
br it
行动 </w>
be y
pr ac
有 所
hu man
st re
ex t
ac ross</w>
wi de</w>
内 部
ag ed</w>
u ation</w>
put in</w>
briti sh</w>
t al</w>
bus h</w>
并 非
bal ance</w>
id e</w>
mo ve</w>
increas ed</w>
re fu
n a
bey ond</w>
rul es</w>
损 失
ver e
个 月
cr u
issu e</w>
bi g</w>
排 放
d en</w>
有 的
com ing</w>
id enti
so vere
1 60</w>
外 国
承 认
pl ay
it ing</w>
cr im
bud get</w>
m as
t on</w>
缺 乏
宗 教
领 袖
equ ality</w>
f all</w>
en sure</w>
处 </w>
比 亚
统 治
sum m
tr u
con v
ful ly</w>
针 对
不 足
投资 </w>
以 来</w>
政 权
fin d</w>
儿 童
for tun
hou se
ther e
dat a</w>
aliz ed</w>
ach iev
f ed</w>
投资 者
in formation</w>
手 段
调 整
hal f</w>
复 杂
削 减
ger man</w>
ru le</w>
ac ks</w>
di st
工 业
愿 意
hist or
为 </w>
em is
量 </w>
di es</w>
l ack</w>
f o
只 能
cooper ation</w>
develop ed</w>
正 确
ta ken</w>
di pl
政策 的
年 轻
dipl om
di str
准 备
kn ow
syst ems</w>
coun c
带来 的
succ ess</w>
不 管
面 对
md ash</w>
工 资
al ways</w>
数 字
道 </w>
ukra ine</w>
积 极
改革 </w>
媒 体
ain s</w>
bec om
iv ed</w>
cor rup
thre at</w>
fed eral</w>
dec ade</w>
am oun
brit ain</w>
de ep
p le</w>
grou p</w>
f ood</w>
h an
伙 伴
应 当
rec over
requ ire</w>
大 学
rus sian</w>
lead ing</w>
阻 止
市场 </w>
re lig
fi ve</w>
cl aim
add ress</w>
正 如
吗 </w>
dom </w>
不 到
复 苏
enc ies</w>
uni vers
期 间
par ties</w>
en ds</w>
每 年
vi ous</w>
广 泛
加 入
干 预
en cour
行 </w>
pl an</w>
今 年
范 围
阿 富
in ed</w>
那 样
行 的
dr iv
sever al</w>
fir ms</w>
se em</w>
但 在
阿富 汗
网 络
显 然
pro mo
el l</w>
refu ge
担 心
主 权
视 为
的 问题
1 年
w in
isra el
comm is
ti vely</w>
容 易
consid er</w>
政府 </w>
支 出
op en</w>
counc il</w>
形 成
的 全球
larg est</w>
灾 难
击 </w>
意大 利
变 化</w>
s cal
condi tions</w>
下降 </w>
劳动 力
努 力
原 则
允 许
巴 西
亿美元 </w>
经济 增长
进 程
流 动
st oc
o s</w>
经 历
re ach
pl an
协 定
st er</w>
mod el</w>
opportun ity</w>
w ater</w>
ven tion</w>
trad iti
也 不
储 蓄
respon se</w>
看 </w>
1 2
在 一
sel f-
st er
l on
宣 布
youn g</w>
re public
chang es</w>
建 设
are as</w>
9 年
cap ac
dr u
财 富
coll ap
1 8
al ter
lo ok</w>
ad op
地区 的
v ol
ha ving</w>
能 力</w>
不 平等
af gh
之一 </w>
共和 党
ex ist
a ve</w>
无 论
tu al</w>
politici ans</w>
ban king</w>
americ ans</w>
短 期
shor t</w>
吸 引
主义 的
offici als</w>
高 </w>
know led
di d
r ich</w>
he ad
知 识
有 关
文 化
ic k
hop e</w>
dom in
li ons</w>
l ess
sh e</w>
重 大
下 的
开 发
pak istan</w>
it al</w>
大 幅
ta king</w>
leg al</w>
方面 的
grou ps</w>
pre dic
利益 </w>
de a
ra is
inv ol
代 价
de st
水平 </w>
毫 无
往 往
充 分
def ense</w>
li am
d one</w>
star t</w>
a verage</w>
中 央
ad di
policy makers</w>
weap ons</w>
sa id</w>
方案 </w>
pres sure</w>
ne igh
高 的
produc tion</w>
rec e
紧 缩
路 </w>
仅 仅
t es</w>
c us
deter min
par liam
consequ ences</w>
wh ose</w>
在 这
re turn</w>
ag n
exp ected</w>
lead er</w>
defic it</w>
开 放
l d
迅 速
campa ign</w>
thin k</w>
危机 </w>
as sets</w>
an tly</w>
ne g
ed ly</w>
扩 大
呢 </w>
一 位
了 一个
he ad</w>
调 查
联 系
j e
d am
4 0</w>
com pl
美国 和
方 法
快 速
c e
威胁 </w>
strateg ic</w>
sci enti
集 团
沙 特
at tr
第 三
adv anced</w>
h o
consum ption</w>
foc us</w>
失 去
u k</w>
effec ts</w>
投 票
ord in
str ong
d er
produc tivity</w>
an ese</w>
将 在
反 映
r e</w>
t ro
议 会
p us
as sum
腐 败
促 进
fin ally</w>
最 大的
但 这
多 的
effor t</w>
a id</w>
一 致
necess ary</w>
务 </w>
自 然
核 心
fi ed</w>
s low
某 种
pl ay</w>
k ing
a w
不 过
fa v
足 够
平 均
行 业
in sur
它们 的
ex per
er able</w>
ati ves</w>
政 党
的 问题</w>
go ing</w>
表明 </w>
re li
联 邦
requi res</w>
rel ations</w>
通 常
主 席
正 是
并 不是
fail ed</w>
承 担
购 买
bra z
恢 复
ann ual</w>
do ing</w>
经 常
capac ity</w>
a sian</w>
它 的
显 示
r ad
t ory</w>
所 以
hou se</w>
组织 </w>
pro b
s il
感 到
vo ters</w>
dem on
体 </w>
struc tural</w>
保 证
象 </w>
分 子
中国 </w>
bro ad
物 </w>
在 200
g as</w>
iz ing</w>
形 式
mon ths</w>
d ro
赢 得
a im</w>
批 评
ar -
3 年
ag end
me e
larg ely</w>
an si
过 度
1 .
power ful</w>
c ause</w>
气候 变化
il l</w>
att emp
cre ated</w>
al ist</w>
4 年
revol ution</w>
暴 力
op position</w>
ol s</w>
if ic</w>
s tim
起 </w>
maj ority</w>
tur ing</w>
合 法
scal e</w>
y or
b on</w>
emis sions</w>
一 项
疾 病
weal th</w>
ig g
助 于
墨 西
a way</w>
al though</w>
glob alization</w>
a ir</w>
m ac
即 便
市场 的
mas sive</w>
fail ure</w>
西 班
墨西 哥
stim ul
工作 </w>
西班 牙
f our</w>
de fin
d an
gr ad
u </w>
ful l</w>
m i
an al
viol ence</w>
econom ists</w>
influ ence</w>
se e
deb ate</w>
治 理
progr ams</w>
ain ing</w>
man u
ati onal</w>
潜 在
增加 </w>
ain ed</w>
s or
al one</w>
g -
re le
选择 </w>
死 亡
基 于
合 理
islam ic</w>
oun d
d es</w>
部 长
egyp t</w>
parti cip
ven ess</w>
high -
pr im
3 0
s au
困 难
sist ance</w>
i o</w>
ch ed</w>
tar ge
po st-
medi a</w>
工 具
再 次
ro ad</w>
y a</w>
益 </w>
确 实
军 队
1 5</w>
jap anese</w>
除 了
is tic</w>
简 单
去 年
t op</w>
因素 </w>
c op
道 德
支 付
peri od</w>
ac tiv
th y</w>
卫 生
fortun ately</w>
yor k</w>
面 </w>
ec b</w>
civ il</w>
ac tions</w>
fun ds</w>
崩 溃
kn own</w>
demon str
起 来
our ce</w>
industr y</w>
地 位
wor king</w>
ne ws</w>
se en</w>
commis sion</w>
e ither</w>
l -
ne t
sec re
加 强
bon ds</w>
integr ation</w>
increas ing</w>
str u
go ods</w>
角 色
palestin ian</w>
prev ent</w>
in dic
首先 </w>
经济 </w>
措施 </w>
数 量
w er</w>
coun ter
m ex
buil d</w>
- </w>
benef it</w>
ne arly</w>
1 1
提 出
人 都
re port</w>
曾 经
iti m
offic ial</w>
国际 货币
in al</w>
govern ance</w>
adv ant
mex ic
月 </w>
str ic
19 6
popul ar</w>
li ves</w>
in equality</w>
alter nati
2 5</w>
relati on
br ing</w>
fre ed
sing le</w>
立 场
原因 </w>
引 起
dec line</w>
im migr
鼓 励
储 备
l ost</w>
经 验
在 过去
tr il
elec tions</w>
h ere</w>
而 言</w>
公 开
struc tion</w>
cl ose</w>
sup ply</w>
ide a</w>
思 想
f ound</w>
mod ern</w>
fe ar</w>
ma kes</w>
为 什么
协议 </w>
两 国
be ha
c ir
sol ution</w>
under min
shif t</w>
no thing</w>
汇 率
来 说
ic ation</w>
job </w>
g ive</w>
leg itim
s al
评 估
l ater</w>
decis ion</w>
agend a</w>
2 年
recover y</w>
am b
pres sion</w>
ach ieve</w>
nat ural</w>
分 析
国 会
wor se</w>
处 于
cer tain</w>
afgh an
particul ar</w>
发展中 国家
ab o
b ad</w>
也 有
m en</w>
pre ad</w>
的 方式
ital y</w>
mod er
vis ion</w>
r en
精 神
dis cus
201 0</w>
几 年
beg an</w>
寻 求
不同 </w>
另 一个
buil ding</w>
fr am
建 议
好 </w>
讨 论
ex ports</w>
肯 定
innov ation</w>
也 会
environ ment</w>
thre at
看 到
袭 击
foll owing</w>
gdp 的
n or</w>
其 实
r un
st ed</w>
前 的
sub st
me d
so vie
jec ts</w>
negoti ations</w>
c at
转 移
pro s
的 社会
inc enti
认为 </w>
的 主要
rec ession</w>
7 年
th ern</w>
事 情
苏 联
这 场
扩 张
it ar
all ow</w>
th -
机构 </w>
部分 </w>
m om
tax es</w>
经济 学
be h
treat y</w>
can did
ent -
afghan istan</w>
强 调
ke ep</w>
vo te</w>
的 政策
en ter
的 不
毕 竟
re ven
some thing</w>
impl em
程度 上
发展 </w>
当 时
beha vi
l ate</w>
th ings</w>
伦 敦
女 性
这 意味着
corrup tion</w>
只 要
pre ci
框 架
gu ar
妇 女
ver s</w>
beg in
地区 </w>
experi ence</w>
欧洲 </w>
for ced</w>
m ec
明 显
z </w>
im prove</w>
银行 </w>
ul tim
的时候 </w>
braz il</w>
li ving</w>
fr i
e ase</w>
成 立
k ind</w>
生 命
ec ts</w>
environ mental</w>
b ol
l u
mon th</w>
本 身
想 要
re f
to tal</w>
ar ily</w>
sol u
和 </w>
完 成
lim ited</w>
op ol
fer ence</w>
表 示
农 业
供 应
ev idence</w>
那 样</w>
防 止
候 选
成功 </w>
pl es</w>
见 </w>
king dom</w>
人 员
eff ect</w>
ti veness</w>
bo o
ti cal</w>
lon don</w>
p t
追 求
im f
d a
li m</w>
ie f</w>
的 信
pow ers</w>
外 部
hel d</w>
转 变
韩 国
f y</w>
su s</w>
之 </w>
pros per
bec ame</w>
hol ds</w>
distr ibu
hu ge</w>
extre m
另 一
作 用
态 </w>
国 民
ish ing</w>
car bon</w>
一 样
坚 持
presid ential</w>
在 201
保 险
mov ement</w>
生 物
re ally</w>
情 绪
有 利
美国 人
g s</w>
ste p</w>
东 西
有 些
担 忧
low -
cle arly</w>
c ities</w>
公 平
第 一
val ues</w>
处 理
民 粹
国际 社会
pro pos
prob ably</w>
当 局
美国 总统
li gh
c ity</w>
ch e
con fron
tr ansi
e ful</w>
ver se</w>
beh ind</w>
high ly</w>
cu t</w>
tic s</w>
stru gg
est ed</w>
con gress</w>
主义 者
指 出</w>
ec t
动 荡
freed om</w>
con serv
核 武器
traditi onal</w>
qu ar
宪 法
con clu
全 面
,00 0
m it
rap id</w>
19 4
author ities</w>
贬 值
和 经济
industr ial</w>
ex ter
使 得
同 意
success ful</w>
更 大的
全球 经济
sovie t</w>
im medi
il led</w>
ent ing</w>
秩 序
w at
del i
削 弱
d oc
认 识到
prot ect</w>
invest ments</w>
mec han
少 数
fundam ental</w>
b s
a si
mus lim</w>
s un
ap h
比 例
ar t</w>
avo id</w>
go al</w>
li ve</w>
fun c
tr i
opportun ities</w>
国际货币 基金
cl ass</w>
200 8年
sit uation</w>
机 制
合作 </w>
百 万
种 族
大 约
负 债
id ed</w>
finan cing</w>
tril lion</w>
基 因
有 人
shor t-
治 疗
i ble</w>
特 </w>
dou b
b an</w>
执 政
el d</w>
d own
t em
di g
放 弃
证 据
organ ization</w>
a h</w>
怀 疑
terr it
d ers</w>
manu fac
v ul
b ack
统 一
增长 的
so on</w>
la un
le t</w>
nor m
进 口
巨 大
al li
c ases</w>
arg u
se em
arm ing</w>
满 足
共 产
pro per
找 到
ad ju
分 配
e an</w>
contr ast</w>
re ality</w>
sau di</w>
有 助于
le -
组 成
ac tually</w>
战争 </w>
6 年
tur ned</w>
li qu
collap se</w>
s anc
c all</w>
200 9</w>
su per
是 因为
defic its</w>
at ory</w>
集 中
n i
at eral</w>
knowled ge</w>
ag ric
abo ve</w>
au t
reser ve</w>
就 像
r ene
as soci
相 比
agric ul
to ok</w>
individ ual</w>
真正 的
的 一个
决策 者
家 </w>
执 行
de pend
承诺 </w>
er a</w>
mat ter</w>
工 人
fram e
manag ement</w>
l in</w>
reg ar
逐 渐
策 略
力量 </w>
成本 </w>
guar an
an -
z er
si ze</w>
膨 胀
该 国
reduc ing</w>
oc c
larg er</w>
bo ost</w>
转 型
地 位</w>
wor ld
he av
te e</w>
在 </w>
stat us</w>
re ach</w>
liber al</w>
o t</w>
区 域
例 如
as k</w>
de p
av ail
预 期
天 然
ob jec
gr ound</w>
dan ger
wor ks</w>
el ess</w>
联盟 </w>
promis e</w>
这样 做
一 定
补 贴
去 </w>
民主 党
犹 太
造成 的
respon sibility</w>
h y
之 后</w>
certain ly</w>
的 国家</w>
和 政治
sci ence</w>
pur ch
bor row
wr ong</w>
st ing</w>
str i
att ention</w>
保 守
ur g
都 会
m a</w>
很 难
前 景
corpor ate</w>
u su
系 列
organ iz
de v
stand ards</w>
ic ations</w>
conf idence</w>
遏 制
bs p</w>
a ke</w>
leg isl
制 裁
cred it
par ts</w>
一 切
常 常
tr y</w>
燃 料
而 在
qu ick
so -
n bsp</w>
最 后
sub si
ev ent
ough ly</w>
st ly</w>
h ous
ne w
独 裁
201 5</w>
意 识
establ ished</w>
relati vely</w>
sol id
di vid
s on</w>
refuge es</w>
inclu de</w>
criti cal</w>
on e-
分 裂
ord ers</w>
生产 率
behavi or</w>
direc t</w>
ann oun
eas y</w>
competi tion</w>
的情况 下
ar ch
也 在
当 今
underst and</w>
go als</w>
relig ious</w>
dra w
b order</w>
负 担
对 此
on es</w>
各 种
vul n
econom ics</w>
re -
巴 黎
正 式
concer ns</w>
观 察
li ght</w>
out come</w>
st op</w>
1 00
％ </w>
elec tr
on ed</w>
re stor
h ood</w>
offic e</w>
ac tive</w>
exp ect
理 论
a -
subst anti
严重 的
普 遍
curr ently</w>
mee ting</w>
后 果</w>
cre di
ju d
政 客
将 是
wor ds</w>
需求 </w>
lat in</w>
auth ority</w>
欧盟 的
w ed</w>
值 得
行为 </w>
大 选
cre ating</w>
exc ep
mexic o</w>
aliz e</w>
利 润
l ad
pro duce</w>
时 期
发 自
也 没有
税 </w>
wil ling</w>
st ep
人 权
发达 国家
稳定 </w>
wi d
f ight</w>
h and</w>
责任 </w>
回 报
el se
糟 糕
倍 </w>
cu ts</w>
规 定
me an</w>
independ ence</w>
er -
加 剧
c ame</w>
decis ions</w>
se tt
不 得
al ong</w>
quick ly</w>
z ed</w>
技 能
resul ts</w>
观 点</w>
具 体
m os
0 s</w>
压 力</w>
趋 势
itar ian</w>
o v
j un
every one</w>
w ash
s -
mil lions</w>
通 货
else where</w>
ig nor
commit ment</w>
stu d
压 力
人民 币
for ward</w>
远 远
coll ec
un likely</w>
att acks</w>
i i</w>
relation ship</w>
exter nal</w>
其他 国家
克 </w>
宽 松
so- called</w>
清 楚
c am
俄 国
斗 争
al ists</w>
oc cur
world wide</w>
r oughly</w>
波 兰
add res
sur pl
ac ked</w>
ad equ
afric an</w>
qu ality</w>
债 权
ing ton</w>
ill s</w>
sy m
ver si
进 展
1 5
北 约
olog ical</w>
全球 化
不 幸
左 右
begin ning</w>
we ak</w>
竞 选
速 度
福 利
的 世界
technolog ies</w>
需要 的
了 解
es si
develop </w>
au ster
总 体
me et</w>
注 意
sh oc
f le
目 的
k er</w>
n er</w>
con sen
comp any</w>
ca used</w>
ar ity</w>
bar ack</w>
inter vention</w>
永 远
条件 </w>
强 大的
sp ain</w>
精 英
pro jects</w>
thr ough
. 5</w>
m ic
设 计
的 重要
d yn
mean while</w>
bo ok</w>
israel i</w>
负 责
宏 观
上升 </w>
低 </w>
pa th</w>
冲突 </w>
st able</w>
迫 使
dec lin
justi ce</w>
t yp
很 大
h un
simil arly</w>
并 未
m ist
而 这
这一 点</w>
re fer
for man
h os
becom ing</w>
201 2</w>
债务 </w>
pres s</w>
阶 级
t ation</w>
enti ally</w>
ign -
sh ow</w>
alternati ve</w>
succ e
m y
cir c
reser ves</w>
plac ed</w>
例 </w>
mor al</w>
europe ans</w>
per forman
gre ek</w>
danger ous</w>
le ave</w>
cl aim</w>
人 士
方 向
off er</w>
contin ued</w>
it able</w>
即 将
po or
bas ic</w>
d ays</w>
不同 的
提供 了
二 十
货币 政策
y i
收 益
insur ance</w>
sanc tions</w>
na to</w>
civ il
par is</w>
int ro
团 结
f ig
工 程
为 止
em ic</w>
produc ts</w>
neigh b
individ u
天然 气
frame work</w>
泡 沫
的 政府
真 实
p i
har d
wash ington</w>
re pe
的 关键
障 碍
pro ject</w>
不 但
auster ity</w>
克 里
out side</w>
f are</w>
7 0</w>
tu res</w>
贡 献
enti re</w>
华 盛
强 化
com mod
几 十年
华盛 顿
cour t</w>
毕竟 </w>
空 间
inter net</w>
ti ves</w>
rel ative</w>
而 非
为 何
scho ol</w>
201 1</w>
的 高
b igg
li er</w>
激 励
存在 </w>
bo dy</w>
发 挥
dea th</w>
reas ons</w>
停 滞
也 将
有 着
w on</w>
201 0年
recogn ize</w>
performan ce</w>
as set</w>
也 就是
af for
提 升
之 前
则 是
总 是
sur pris
学 生
机 </w>
人 和
b i</w>
g ed</w>
p on
内 的
ge -
exist ing</w>
in a</w>
amoun t</w>
al lies</w>
dis ease</w>
银行 的
下 跌
开始 </w>
stoc k</w>
的 对
新 闻
武 装
h or
官 方
专 家
occ up
和 社会
e ast
prin cip
失业 率
organiz ations</w>
双 方
显 著
protec tion</w>
consen sus</w>
模式 </w>
fr an
gener ation</w>
相 互
权 利
199 0</w>
gr aph
br id
至 关
应 </w>
de ep</w>
合 </w>
讲 </w>
s ource</w>
最 高
fl ows</w>
mar k</w>
id ly</w>
外 的
sp ir
而 不
cho ice</w>
什么 </w>
el im
su ffer
qu e</w>
ess ential</w>
form ed</w>
取 决
neg ative</w>
serv ice</w>
投 入
很 快
mat er
脆 弱
m un
hel ped</w>
取决 于
得 多</w>
多 少
br ought</w>
at or</w>
的 国际
食 品
cre ation</w>
多 年
马 斯
terror ism</w>
的 欧洲
sh e
基础 </w>
elec ted</w>
wh ol
等 </w>
main tain</w>
201 3</w>
busin esses</w>
accep t</w>
ke p
id ity</w>
al d</w>
vic tory</w>
正 常
从 未
co al
tar get</w>
共 识
respon sible</w>
ent ation</w>
rel ated</w>
量 的
类似 的
10 0</w>
… </w>
independ ent</w>
stimul us</w>
comple x</w>
ultim ately</w>
ra ise</w>
h i
posi tive</w>
summ it</w>
阶 段
盟 友
wh er
all owed</w>
可以 在
制 度</w>
un fortunately</w>
en s
univers ity</w>
cent er</w>
g res
n on
条 约
iv al</w>
ang er</w>
advant age</w>
ec u
fam ily</w>
互 联
in s</w>
event ually</w>
p an
最 后</w>
comm er
lo g
时间 </w>
fac il
巴 嫩
prosper ity</w>
彻 底
cris es</w>
out put</w>
黎 巴嫩
en h
停 止
面临 着
pro posed</w>
美元 </w>
起 来</w>
cor e</w>
次 </w>
individu als</w>
否 则
当 选
1 1</w>
parliam ent</w>
con str
p ati
内 </w>
avail able</w>
计 算
t y
中 心
符 合
教 训
p ac
f igh
there by</w>
产 业
gre at
当 地
我 的
领 土
依 靠
考虑 到
欢 迎
thin king</w>
elec tor
wel l-
olog y</w>
变 革
方 针
不仅 仅
requi red</w>
des cr
日 </w>
打 击
op h
退 出
bas is</w>
公司 </w>
over all</w>
p ass
conv enti
是 对
at e-
om b
呼 吁
bel ow</w>
st anding</w>
fac tors</w>
的 影响</w>
east ern</w>
信 任
这 类
预 计
republic an</w>
但 如果
的 可能
s cen
rec or
限 </w>
ac ted</w>
办 法
直 到
iv er</w>
接 近
arab ia</w>
fun ding</w>
h om
还 要
消费 者
addi tional</w>
pers onal</w>
re in
through out</w>
害 </w>
ans wer</w>
technolog ical</w>
克 林
dr am
le ban
本 国
念 </w>
sav ing</w>
are a</w>
消 息
h n</w>
contin ues</w>
群 体
it es</w>
o ffer
se a</w>
bre x
provid ed</w>
效 率
ati cally</w>
ap er</w>
agre ed</w>
li ke
破 产
att ack</w>
身 份
mac ro
的 美国
好 处</w>
tr ou
一 旦
201 4</w>
替 代
头 </w>
re al
or ig
- market</w>
实现 </w>
concer n</w>
h and
ex ac
pt ember</w>
se ptember</w>
之 后
im ag
忽 视
禁 止
main tain
shi ps</w>
bu b
这一 点
shor t
u ary</w>
socie ties</w>
rap idly</w>
00 0
th ought</w>
tion ary</w>
对 其
dyn am
法 院
有效 的
手 </w>
sav ings</w>
pa id</w>
所有 这些
望 </w>
solu tions</w>
g ains</w>
方 法</w>
n ar
ex plo
尔 德
面临 的
但 却
tur ns</w>
li b
安全 </w>
reduc tion</w>
incenti ves</w>
bel iev
ec h</w>
in ev
indi an</w>
紧 张
充 满
增长 率
都 在
最近 的
19 3
ca re
transi tion</w>
结构 性
poin ts</w>
估 计
inter nal</w>
普 通
prec ed
一 体
8 0</w>
el er
退 休
角 度
im per
es sive</w>
pe ac
y es</w>
改变 </w>
agre ements</w>
立 法
con sist
ac ts</w>
t an
问 </w>
变 化的
dam age</w>
fac ing</w>
通货 膨胀
ar ies</w>
short- term</w>
claim s</w>
服务 </w>
4 5</w>
ne ither</w>
透 明
观 </w>
峰 会
h im
我们 必须
然而 </w>
ig ned</w>
强 烈
要 么
ex clu
ques tions</w>
汽 车
arg ue</w>
派 </w>
战 </w>
some times</w>
sim ple</w>
大 大
su d
l an
主 导
在 未来
au str
house holds</w>
th ous
200 7</w>
tr ust</w>
end er</w>
的 影响
遭 到
学 校
尤其 是
mor t
ris k
ish ment</w>
角色 </w>
世界 上
b orders</w>
除 非
f ound
nat ure</w>
j our
ap par
机 制</w>
发生 </w>
int el
几 个
推 进
aim ed</w>
c anc
这 项
ir an
摆 脱
被 迫
ul ation</w>
intel lig
地 产
like wise</w>
激 进
agre e</w>
appe ars</w>
provid ing</w>
更 好的
见 的
re stric
性 和
institu tional</w>
ar ing</w>
利 比亚
发 表
tal ks</w>
重 组
e ts</w>
competi tive</w>
在 其
协 调
an g</w>
自身 的
w ages</w>
b ly</w>
有 一
就 能
strong er</w>
a head</w>
em br
cul tural</w>
ex port</w>
寻 找
ab s
abil ities</w>
equ ity</w>
pre h
想 象
fu el</w>
effec tively</w>
氧 化
当 然
r </w>
程 序
initi ative</w>
los s</w>
char ac
右 翼
不 确定
互联 网
arm y</w>
后 果
组织 的
ph ys
increas es</w>
萧 条
trans par
地 球
i um</w>
streng th
elim in
si x</w>
ev ol
dic t
实际 上
a i</w>
自 我
安 倍
driv en</w>
也 可以
警 告
g az
痛 苦
um ents</w>
ham as</w>
批 准
首 相
ide as</w>
在 美国
资金 </w>
mar g
h und
g row</w>
差 异
最 大
权 利</w>
的情况 下</w>
项目 </w>
stu dy</w>
ac qu
cl int
# 9
con ference</w>
& #9
im possible</w>
之 中</w>
该 地区
ordin ary</w>
lo ans</w>
hous ing</w>
diplom atic</w>
reduc ed</w>
社 区
con duc
旨 在
cul ture</w>
教育 </w>
certain ty</w>
is ion</w>
regul ation</w>
是 一
g ain</w>
世界 的
dis ast
activ ities</w>
wher e
同样 的
崛 起
案 </w>
之 前</w>
underst anding</w>
anc ing</w>
取 代
实 力
开 支
mom ent</w>
cru cial</w>
contr ary</w>
1 2</w>
格 兰
exp an
fa ir</w>
produc tive</w>
而 易
sm all
consum ers</w>
信 用
an ted</w>
conventi onal</w>
see king</w>
partn ers</w>
现 有
约 束
gre en
reach ed</w>
分 歧
系统 </w>
b lo
doll ars</w>
作 </w>
fa il</w>
wid ely</w>
转 向
hol ders</w>
r on
me dic
1 7
未 能
ex ecu
e ffici
commun ities</w>
许多 人
事 务
消 除
brex it</w>
不幸 的是</w>
mat ters</w>
or ge</w>
哈 马斯
ev ents</w>
liqu idity</w>
commun ist</w>
arm ed</w>
lin es</w>
s l
指 责
最 为
politi cally</w>
sha red</w>
t est</w>
exp ect</w>
重 </w>
j an
enc ed</w>
min im
ob vious</w>
con struction</w>
理 </w>
质 疑
单 一
低 于
股 票
al e</w>
establ ish</w>
pus h
供 给
su fficient</w>
industr ies</w>
上 涨
n u
los ses</w>
取 消
阻 碍
g ap</w>
clint on</w>
fu el
来 源
tr ying</w>
sec tors</w>
带来 了
m ess
c old</w>
增 强
问题 上
保 障
whol e</w>
pre vious</w>
体 制
出现 了
adequ ate</w>
spec ial</w>
signific antly</w>
step s</w>
fron t</w>
危机 的
体系 </w>
三 个
€ </w>
美国 在
chil d</w>
o d
w age</w>
direc tly</w>
sur ve
acc eler
t ac
or ities</w>
遭 受
neighb ors</w>
v en</w>
regi ons</w>
scienti f
议 </w>
fundam ent
bur den</w>
比 较
ac king</w>
se ek</w>
palestin ians</w>
pr ise</w>
边 境
的 支持
com par
ch ance</w>
做 法
要求 </w>
t el
extre me</w>
金融 市场
e z
beg in</w>
后 者
int ell
terror ist</w>
长 的
长 </w>
bu l
sugg ests</w>
chang ed</w>
得 以
de fa
om s</w>
采 用
部 队
提 振
ic k</w>
foll owed</w>
s pr
纽 约</w>
un less</w>
不得 不
j ected</w>
而 言
ge orge</w>
生 存
之 外</w>
ac ies</w>
今天 的
an im
企业 </w>
el a</w>
领域 </w>
l ity</w>
trans f
s low</w>
sk ills</w>
foll ow</w>
al ing</w>
m ad
的 人</w>
de fl
sid es</w>
ear lier</w>
s c
k o
op s</w>
or ies</w>
发 动
20 年
ta il
所 带来的
w arming</w>
与 其
y ed</w>
活 动</w>
resp ect</w>
孩 子
混 乱
vi ously</w>
是 不
凯 恩
on y</w>
左 翼
sp ace</w>
g ame</w>
将 其
g er</w>
constitu tion</w>
克林 顿
相当 于
拉 </w>
intell ec
prac tic
sovere ign</w>
ke ep
coal ition</w>
o ther
w in</w>
contin u
manufac turing</w>
ver ed</w>
签 署
as sistance</w>
de fe
资源 </w>
ser ve</w>
号 </w>
appe ar</w>
现在 </w>
严 格
伊斯兰 教
双 边
美 洲
台 </w>
sa ve</w>
新兴 市场
w ants</w>
权 力</w>
b loc
wh at
民粹 主义
包 容
wel fare</w>
争 论
secre tary</w>
在 此
ren min
com preh
局 </w>
we e
多 样
让 我们
ex am
多 边
refer end
jo hn</w>
努 力</w>
expan sion</w>
持 有
differ ence</w>
stand ard</w>
tw o-
能 </w>
ul ar</w>
prin ci
集 体
真 的
损失 </w>
h i</w>
势 力
相 同
consum er</w>
comp ared</w>
差 距
扮 演
二 氧化
pl ans</w>
w ars</w>
fe el</w>
土 地
中国 和
sur ing</w>
技术 </w>
担 任
阿 根
secur e</w>
状况 </w>
se par
的 前
proper ty</w>
d re
c ell
属 于
成 就
syr ian</w>
过 于
oun ds</w>
ri ed</w>
明 白
adv oc
scientif ic</w>
阿根 廷
获得 了
commit ted</w>
盈 余
rele v
foc used</w>
d ar
per man
multi lat
s qu
estim ated</w>
告 诉
exc essive</w>
prim ary</w>
prov ed</w>
eas ily</w>
revol u
fore ign-
histor ical</w>
dru g</w>
intro duc
brid ge</w>
lo t</w>
造成 了
的 财政
y our</w>
ati s
de pression</w>
的 反
ang u
spec ts</w>
背 景
k in
leban on</w>
指 标
候选 人
适 应
这些 国家
得 到了
treat ment</w>
seem ed</w>
circ um
重 建
进步 </w>
u t
re por
0 0</w>
l ending</w>
我们 需要
发生 的
op in
dest ro
学 习
it er
regul atory</w>
j i
二氧化 碳
房 地产
k y
ent ary</w>
ff er</w>
的 确
0 .
kore an</w>
导致 了
有利 于
变 暖
现实 </w>
而且 </w>
alli ance</w>
lim its</w>
缺 少
n am
bil ateral</w>
由 此
qu anti
尔 兰
监 督
意 识到
大 陆
意 愿
战略 </w>
pursu e</w>
一直 在
ati on
adju st
爱 尔兰
c ros
au g
legitim acy</w>
l ing
富 裕
不 应该
规则 </w>
produc ed</w>
内 容
amb iti
ti an</w>
党 </w>
自由 贸易
arg ued</w>
收入 </w>
direc tion</w>
世界 银行
指 数
e fficient</w>
显 而易
前 所
ass ad</w>
renmin bi</w>
import ance</w>
fall ing</w>
recor d</w>
vuln erable</w>
pres sed</w>
fr ag
b att
有 时
gre en</w>
ab e</w>
n om
力 于
放 缓
competi tiveness</w>
取得 了
k en
bal ances</w>
is ely</w>
逊 尼
f arm
困 境
安 排
生 </w>
fle x
pre -
在 一个
g ra
理 想
argu ment</w>
st abil
provid es</w>
官 僚
mis sion</w>
un like</w>
av ing</w>
方式 </w>
any thing</w>
假 设
streng then</w>
bre ak</w>
v ital</w>
二 战
ext ent</w>
promo te</w>
升 值
there fore</w>
类似 地</w>
w ish</w>
亿美元 的
sett l
倾 向
t end</w>
ta kes</w>
周 期
s ources</w>
重要 的是</w>
princi ples</w>
eth n
科 技
n i</w>
m ass</w>
d ate</w>
stud ents</w>
ill ing</w>
targe ts</w>
v ast</w>
赤字 </w>
民族 主义
agg res
司 法
dem ands</w>
dec ember</w>
er y</w>
决定 </w>
cor rec
援助 </w>
what ever</w>
bi o
en or
高 达
substanti al</w>
op tim
par tly</w>
mo ving</w>
credit ors</w>
inv est</w>
者 们
电 视
saf e</w>
国 有
定 义
subsi dies</w>
ap preci
都 有
利率 </w>
promis es</w>
其 它
repres ent
encour age</w>
事实 </w>
id s</w>
enor m
trad ing</w>
矛 盾
bre ak
可以 通过
小 </w>
partn ership</w>
2 5
线 </w>
致 力于
isl am</w>
st and</w>
时 刻
li ed</w>
价值 </w>
nov ember</w>
和 美国
en ab
增加 了
x i</w>
年轻 人
可 靠
impl ement</w>
surpl us</w>
lab or
至 于
加 速
public -
捍 卫
sh ows</w>
st ory</w>
sp end</w>
eng ine
expect ations</w>
un certainty</w>
pat ter
鉴 于
f el
princip le</w>
实 行
refl ects</w>
ex tr
地 缘
iv al
immedi ate</w>
局 势
未 来</w>
fav or
pp ed</w>
恐 惧
mod els</w>
saf e
tr end</w>
ic ity</w>
appro pri
特别 是在
9 0</w>
bo ard</w>
意 </w>
tr aining</w>
的 增长
chang ing</w>
200 0</w>
实际 上</w>
对 抗
manag ed</w>
cu st
思 维
wor th</w>
al i
ab and
宣 称
200 5</w>
态 度
19 5
st ances</w>
亚 </w>
est ing</w>
都 不
发 布
var ious</w>
mer ely</w>
支 出</w>
夫 </w>
vie ws</w>
the ory</w>
zer o</w>
v acc
机 器
en able</w>
fa ster</w>
other wise</w>
st agn
安 理
1 6
is ol
这 次
don ald</w>
口 </w>
fac es</w>
那 里
pus h</w>
足 以
什 叶
reg ard</w>
f ar
norm al</w>
工具 </w>
业 </w>
de gre
is ms</w>
议 院
a h
or e</w>
的 研究
天 </w>
safe ty</w>
者 和
足够 的
代价 </w>
数据 </w>
immigr ation</w>
dis rup
举 行
那么 </w>
克 服
pro spects</w>
bil l</w>
thous ands</w>
intellig ence</w>
st age</w>
提 出了
arg ent
reach ing</w>
b ail
heal th-
给 予
rev e
adop ted</w>
走 向
id ing</w>
滋 病
ch ec
日 程
怎 样
wh om</w>
产生 的
外交 政策
妥 协
感 觉
错误 </w>
iran ian</w>
ch ing</w>
l ose</w>
ob lig
尔 多
手段 </w>
thre ats</w>
疫 苗
figh ting</w>
dis eas
品 </w>
解决 </w>
缺 陷
全 部
m ing</w>
贫 穷
很 少
深 刻
然 后
buil t</w>
tre as
的 民主
un able</w>
so ft</w>
lat est</w>
量 化
原则 </w>
form al</w>
sp ect</w>
钱 </w>
pac ific</w>
por ary</w>
ys is</w>
reas on
mus lim
污 染
ran ge</w>
记 录
缅 甸
any one</w>
presid ency</w>
op tion</w>
随 后
犯 罪
tru th</w>
ci d
giv ing</w>
缓 慢
man age</w>
平衡 </w>
世界 </w>
加 沙
艾 滋病
公司 的
h on
announ ced</w>
展 开
ti ce</w>
明 智
bigg est</w>
arr ang
con ver
效 果
pro por
具 备
sever e</w>
不 久
consid er
t in
respon d</w>
时代 </w>
conserv ative</w>
memb ership</w>
国际货币基金 组织
才 是
毫无 疑
就 必须
拯 救
refl ect</w>
al ia</w>
referend um</w>
aut om
w ing</w>
equ al</w>
el e
call s</w>
201 5年
沙特 阿拉伯
bl es</w>
还 没有
思 考
的 那样</w>
air s</w>
实 验
s pread</w>
需 的
n one</w>
dru gs</w>
t ol
油 价
198 0</w>
fam il
委员 会</w>
ab road</w>
becom es</w>
优 势</w>
or i
doub t</w>
conc ep
sovere ign
的 金融
是 一种
政府 和
三 分
min d</w>
si bly</w>
contro l
spe ech</w>
sh own</w>
form ing</w>
－ </w>
两 大
题 </w>
spec ific</w>
3 0年
所谓 的</w>
distribu tion</w>
ap p
困难 </w>
粮 食
prof its</w>
a uc
ass ess
环境 </w>
sur v
扩 散
polic e</w>
ac tors</w>
认 识
杠 杆
ac ting</w>
塞 尔
英国 </w>
tur ning</w>
感 </w>
明 </w>
ge ts</w>
suppor ted</w>
constitu tional</w>
构 建
毫 不
谈判 </w>
y s</w>
jo in
s ex
s ar
d ue</w>
ad ap
危险 </w>
commer cial</w>
econom ist</w>
ke yn
anal y
scen ar
伦敦 </w>
账 户
在 这个
全 国
sovereign ty</w>
l en
x im
stat e-
信 贷
欧盟 </w>
ne ar</w>
特 征
可能 是
反对 派
pos es</w>
pro -
i ously</w>
那 就是
示 威
e f</w>
h ab
9 0年代
m ed</w>
描 述
re mar
sugg est</w>
el se</w>
自由 </w>
效 果</w>
纽 约
r ound</w>
运 动</w>
掌 握
200 1</w>
macro economic</w>
accoun ts</w>
遭 遇
预 防
fav or</w>
效 </w>
to -
地缘 政治
la ws</w>
伊朗 的
这 么
统 计
lib ya</w>
re m
态 度</w>
ro b
bu re
o x
意识 形
中 产
ur ban</w>
bu y</w>
任 务
him self</w>
表 达
n ation</w>
发达 经济体
ti g
他 在
happ en</w>
委 内
opol iti
usu ally</w>
条 约</w>
在 全球
委内 瑞
欧洲 人
失 </w>
star ted</w>
期间 </w>
g a
m ur
u red</w>
占 据
希望 </w>
as ked</w>
at ure</w>
pay ments</w>
vol ati
众 多
eas ing</w>
2 .
nor thern</w>
所有 的
a king</w>
diseas es</w>
achiev ed</w>
一 代
逊尼 派
op en
us -
所 需要的
republic ans</w>
任 务</w>
团 体
we ek</w>
例 子
奇 怪
des igned</w>
jud g
rais ing</w>
说 服
ab or
pol and</w>
按 照
prec isely</w>
er r
f os
繁荣 </w>
pos sibility</w>
恶 化</w>
iv </w>
vie wed</w>
灵 活
run ning</w>
i red</w>
i or</w>
邻 国
l angu
指 出
g l
习 近
科 学家
sp ent</w>
尝 试
mo ved</w>
习近 平
h ur
个 国家
5 00
有 一个
popul ist</w>
更 高的
in comes</w>
机构 的
兄 弟
传 播
lim it</w>
wi des
fac ed</w>
会 在
re ds</w>
印度 </w>
步 </w>
屠 杀
目前 的
med ical</w>
migr ation</w>
目前 </w>
前所 未
能 否
高 于
ge opoliti
第 一次
农 民
w ent</w>
wides pread</w>
del iver</w>
喜 欢
s po
com pu
未来 的
fr u
对 美国
究 竟
世界 经济
ban kers</w>
中央 银行
用 来
优 势
strugg le</w>
传 染
con n
占 领
compreh ensive</w>
要 想
differ ences</w>
sou thern</w>
gaz a</w>
但 它
to ols</w>
bo om</w>
bas e</w>
成功 的
commit tee</w>
入 侵
im pe
oun ded</w>
就 可以
f ication</w>
刚 刚
荷 兰
improv ed</w>
德国 </w>
as ed</w>
re sistance</w>
candid ates</w>
y m
冲 击
p ic
wor k
体 现
plac es</w>
rad ical</w>
bar ri
提 出的
质 </w>
权 的
并 在
decis i
opin ion</w>
标准 </w>
ay ing</w>
外 汇
effici ency</w>
加 上
ge tting</w>
le aving</w>
克 尔
更 有
scho ols</w>
言 论
m oun
少 </w>
l ying</w>
200 9年
恐怖 主义
操 纵
descr ib
一 般
生活 </w>
and ed</w>
en jo
稳定 的
这 将
法 庭
失败 </w>
发生 了
巨 额
温 和
低 的
五 年
hund reds</w>
where as</w>
curr encies</w>
经历 了
ban k
看 来</w>
拉 美
cl ass
po st
起 到
中产 阶级
charac ter
capit alism</w>
en suring</w>
de par
俄罗斯 的
m en
f our
生活 在
fi x
every thing</w>
同时 也
muslim s</w>
ap pl
主 张
k a</w>
consid ered</w>
安理 会
因为 它
我们 可以
me t</w>
ec ting</w>
resul ting</w>
aff airs</w>
b it
孤 立
facil it
关注 </w>
香 港
k el</w>
mo stly</w>
p un
俄罗斯 </w>
oper ations</w>
200 6</w>
if ied</w>
ca uses</w>
cop e</w>
国 防
ad s</w>
在 经济
的一 部分</w>
vi a</w>
改革 的
受 害
r ural</w>
衰退 </w>
val u
enorm ous</w>
ac tivity</w>
到 20
股 市
jun e</w>
宣 传
dig ital</w>
sup p
表现 出
establ ishment</w>
恰 恰
ad a</w>
这 就是
happ ened</w>
巩 固
ex er
addi tion</w>
著 名
推 翻
attemp t</w>
circum stances</w>
状 态</w>
commod ity</w>
clos er</w>
发展 的
冷 战
health- care</w>
中 所
contin ent</w>
事件 </w>
i j
i -
relev ant</w>
金 </w>
和 金融
什叶 派
攻 击
不 受
9 月
斯 科
反应 </w>
了 这一
促 使
她 们
面 的
perman ent</w>
adv is
宏观 经济
c le</w>
h ib
私人 部门
multilat eral</w>
w all</w>
guaran te
南 非
farm ers</w>
出 于
其 次</w>
abs ence</w>
价格 </w>
愤 怒
同 样</w>
cont ext</w>
tu red</w>
时 期</w>
跨 国
con centr
mar ch</w>
森 林
hu </w>
议 员
大 国
凯恩 斯
计划 的
专 业
农 村
方 </w>
famil ies</w>
包 含
入 </w>
回 归
laun ched</w>
出现 </w>
诸 多
go es</w>
定 的
ethn ic</w>
帝 国
fin al</w>
agricul tural</w>
t a</w>
dr ive</w>
col le
serv ed</w>
mess age</w>
elector al</w>
欧元 </w>
m ach
for ec
几 个月
总统 </w>
house hold</w>
为止 </w>
mort g
wh ite</w>
r he
re public</w>
t ask</w>
趋 势</w>
测 试
牺 牲
特 殊
sustain ed</w>
款 </w>
药 物
associ ated</w>
a il</w>
两 年
ten sions</w>
办 法</w>
mer kel</w>
的 领导
democr acies</w>
现 象
pen ds</w>
回 到
b ers</w>
collec tive</w>
z y</w>
地方 </w>
borrow ing</w>
dis co
all owing</w>
k ur
澳 大
不 愿
边 界
培 训
c ement</w>
as p
反映 了
broad er</w>
p sy
op pon
相 似
承 受
意义 </w>
conflic ts</w>
原因 是
h it</w>
研 发
rece ived</w>
s ent</w>
民主 的
变 成
绿 色
m em
是 个
hel ping</w>
东西 </w>
de pends</w>
模 型
rhe tor
re ment</w>
理 事
ing ing</w>
k ong</w>
rene w
jour n
wor ked</w>
tr ied</w>
consid erable</w>
f ell</w>
capit a</w>
legisl ation</w>
有 了
deep ly</w>
rati o</w>
澳大 利亚
ven ez
pl at
例 子</w>
g- 20</w>
g ene
venez u
d anger</w>
univers al</w>
维 护
贷款 </w>
spr ing</w>
in st
ak es</w>
化 石
l and
格 鲁
fac tor</w>
控制 </w>
地 的
阿 萨
但 这一
借 贷
c ash</w>
另 外
量化 宽松
的 能力</w>
社会 </w>
curr ent-
gener ally</w>
构 成
价 </w>
崩溃 </w>
pers on</w>
reven ues</w>
con solid
解决 方案
访 问
re turns</w>
第 一个
u d
1 4
current- account</w>
也 无法
更 不
两 种
in stability</w>
整 体
党 派
尽管 如此</w>
流动 性
exper ts</w>
iv ing</w>
comp ens
sig n</w>
play ed</w>
无 疑
竞争 </w>
区 </w>
identi ty</w>
argent ina</w>
c au
情 报
te en
ad ly</w>
联系 </w>
n ow
复苏 </w>
emp ha
un preced
的 长期
reven ue</w>
con nec
resol ution</w>
d c</w>
hol ding</w>
finan ci
大 型
标 志
质 量
很大 程度上
el ds</w>
dec la
巴 拉克
涉 及
democr ats</w>
进行 了
sub ject</w>
la w
canc er</w>
看 起来
流 </w>
ac ad
scienti sts</w>
ow ned</w>
pre pa
am p</w>
很 可能
wr it
pres ent</w>
岗 位
公 投
oun ding</w>
被 认为
拉 丁
日本 的
an i</w>
dep end</w>
moder n
comple te</w>
话 说</w>
bure auc
事实 上
过 渡
日本 </w>
up on</w>
举 措
左右 </w>
im ports</w>
on ally</w>
最 新
t old</w>
enti ons</w>
small er</w>
是 有
h ong</w>
强 硬
现 状
su res</w>
说 明
1 4</w>
资产 </w>
不可 避免
invol ved</w>
边 缘
ph il
at lan
exc e
释 放
协定 </w>
至关 重要</w>
公 正
f requ
bro ad</w>
绝 对
一 年
g old</w>
remain ed</w>
con tain
lear n</w>
信息 </w>
ti gh
试 验
启 动
wh el
succe ed</w>
引 入
的 目标</w>
治 </w>
loo king</w>
障碍 </w>
ie ty</w>
ch ris
disast er</w>
promis ed</w>
但 我们
早 期
p ack
西 洋
到 </w>
op pos
p p</w>
ful f
ne y</w>
尼 </w>
1 3
ex por
s em
recogn ized</w>
在 欧洲
好 地
pris es</w>
参 加
民主 </w>
emerg ed</w>
defa ult</w>
负债 表
improv ing</w>
regul ations</w>
变得 更加
y le</w>
性 的</w>
bureauc r
极 为
制造 业
he art</w>
对 待
历史 上
sig ned</w>
n ame</w>
e th</w>
cap e</w>
信 心
资 格
reg im
poin ted</w>
争 议
约 旦
不 满
gen u
diplom acy</w>
g one</w>
ro o
ch ief</w>
qu ite</w>
per ce
rais ed</w>
化石 燃料
sp ur
mechan ism</w>
库 尔德
ric h
over whel
ain ts</w>
quar ter</w>
per cent
情况 下</w>
high est</w>
am es</w>
cho ose</w>
co al</w>
as ser
unpreced ented</w>
ag encies</w>
out comes</w>
atlan tic</w>
紧 密
wor st</w>
keep ing</w>
ent re
早 已
enti rely</w>
当前 的
n ings</w>
di ed</w>
幸 运
bl ed</w>
vi ve</w>
辩 论
以 此
一 系列
aff ected</w>
ag ency</w>
达 到了
ar ti
p au
contro ls</w>
维 亚
s ound</w>
stre am</w>
candid ate</w>
波 动
着 </w>
vel </w>
导 弹
各 自
appropri ate</w>
appro ach
c ent</w>
人 在
decla red</w>
资产 负债表
tro ops</w>
不 太
credi bility</w>
ir ing</w>
胜 利
tw ent
声 称
re struc
立场 </w>
位 于
h ands</w>
n ia</w>
答 案
知 </w>
gener ate</w>
纳 税
的 结果</w>
可持续 发展
ter -
进 </w>
也是 如此</w>
所 面临的
on going</w>
报告 </w>
好 处
chan n
图 </w>
migr ants</w>
or ial</w>
conv inc
estim ates</w>
remar k
wee ks</w>
cam bridge</w>
b ir
m el
ch em
发现 </w>
l ist</w>
w anted</w>
月 份
心 理
p ace</w>
事情 </w>
st al
neigh bor
在 美国</w>
viol ent</w>
抑 制
al ed</w>
sup posed</w>
2 1
g i
的 政策</w>
委内瑞 拉
ad ded</w>
est -
对 手
per spec
中 间
下 去</w>
en om
阿 尔
suffer ing</w>
默 克尔
trans formation</w>
大 西洋
的人 口
不仅仅 是
pau l</w>
pr ene
b ound</w>
仍 在
解 放
ti tu
prof essi
entre prene
entreprene ur
尚 未
ag ue</w>
main ly</w>
n ig
人们 的
tur k
t op
exp ensive</w>
suppor ters</w>
1 7</w>
还 会
cal cul
est ate</w>
ju ly</w>
great est</w>
eth eless</w>
居 民
重 点
me th
营 养
k illed</w>
与 美国
non etheless</w>
20世纪 90年代
rece ive</w>
之 所以
今天 </w>
过程 </w>
shar ing</w>
fir m</w>
惩 罚
紧 急
posi tions</w>
anal ysis</w>
哥 伦
过 </w>
升 级
各国 政府
融资 </w>
our s</w>
w ast
midd le-
z ation</w>
命 运
tion ing</w>
st ati
201 3年
um b
d ings</w>
作 出
尔多 安
度 的
al loc
cy cl
ro om</w>
行 长
psy ch
强 制
这是 一个
adjust ment</w>
201 1年
agg reg
理由 </w>
pro li
over come</w>
1 3</w>
fa ir
ic it</w>
兴 趣
哥伦 比亚
e asi
在 政治
f f</w>
barri ers</w>
proli fer
undermin e</w>
例如 </w>
约 翰
exp and</w>
particip ation</w>
ta i
popul ations</w>
treas ury</w>
regim es</w>
如何 </w>
fir e</w>
极 大
ar ms</w>
cap able</w>
员 工
之 下</w>
st ands</w>
hard ly</w>
sh r
g ir
抗 议
g ing</w>
201 6</w>
num bers</w>
geopoliti cal</w>
ber t</w>
进程 </w>
prac tice</w>
jo in</w>
要 比
底 </w>
b acked</w>
k rem
initi atives</w>
practic es</w>
道 路</w>
ch arg
refuge e</w>
超 越
offer ed</w>
循 环
pot entially</w>
c ro
contribu te</w>
fi eld</w>
严重 </w>
200 4</w>
bo tt
pri ority</w>
的 支持</w>
贫困 </w>
propos al</w>
imp lies</w>
n ic
agricul ture</w>
equ ally</w>
stu dies</w>
man ip
打 破
付 出
nation alism</w>
k im</w>
r ing</w>
海 洋
f if
所谓 的
rhetor ic</w>
学 </w>
g ar
意识形 态
被 视为
力 和
所 </w>
de plo
defl ation</w>
s ought</w>
i th</w>
结束 </w>
新兴 经济体
自 动
im posed</w>
201 2年
胜 利</w>
wil ling
comb ined</w>
化 和
忽 略
1 8</w>
激 烈
贝 尔
f lo
strateg ies</w>
fe ars</w>
stre et</w>
restor e</w>
通 缩
离 开
willing ness</w>
islam ist</w>
紧 迫
用 的
住 房
欧盟 委员会
镇 压
pres er
印度 的
experi enced</w>
z ing</w>
vic tim
it ation</w>
bon d</w>
meas ure</w>
f ar-
革命 </w>
at ures</w>
abl es</w>
f at
and a</w>
数 百万
p ain
er o
基 地
不 够
的 机会</w>
m it</w>
全球 变暖
埃 尔多安
还 需要
tw enti
expl ain</w>
让 他们
less on</w>
en em
dea ths</w>
fall en</w>
这 也是
int ended</w>
f ast</w>
尼 日
m ir
fu els</w>
基 督
阿萨 德
怎 么
首 次
continu ing</w>
exer c
职 业
regul ators</w>
with draw
exp end
危险 的
re ti
在 这一
资本 主义
这 就
affor d</w>
no t
东 盟
tai w
北 京
slow down</w>
损 害
ec tion</w>
别 </w>
ty pe</w>
mid -
问题 是
implem ented</w>
显 然</w>
expend it
commit ments</w>
adv ance</w>
持 久
世界 各
s an</w>
一致 </w>
给 了
f ol
情况 </w>
货币 </w>
和平 </w>
概 念
b el</w>
rel and</w>
inclu sive</w>
dec lar
知道 </w>
都 没有
rul ing</w>
sa w</w>
随 之
plan et</w>
krem lin</w>
拉丁 美洲
percent age</w>
保护 </w>
cu tting</w>
规 划
jan uary</w>
in don
indon es
fre e-
受 到了
消 灭
ad d</w>
tr ag
con struc
dec ided</w>
ob ser
的 军事
un ity</w>
交 通
electr icity</w>
for cing</w>
i reland</w>
创新 </w>
但 他们
re sid
bel ief</w>
deb ts</w>
g ul
的 历史
选举 </w>
w o
bank rup
c row
至 今
t pp</w>
逻 辑
任 命
限 于
tic ally</w>
最 重要的
让 人
found ation</w>
太 平
des er
di al
共产 主义
minist ers</w>
scenar io</w>
l ands</w>
成功 地
tal k</w>
mov ements</w>
瑞 典
部门 </w>
ast ro
管 制
streng th</w>
s kep
台 湾
德国 的
every where</w>
201 4年
intellec tual</w>
c ism</w>
ou d</w>
shar p</w>
多 元
determin ed</w>
og ue</w>
程 度</w>
w .</w>
强 劲
er b
u te</w>
将 继续
特朗普 的
territ ory</w>
以 前
in d
姆 林
的 风险
im balances</w>
shar ply</w>
be ij
em o
尔 的
局 面
less ons</w>
也 不会
人们 对
6 0
奇 </w>
aliz ing</w>
emplo ye
pati ents</w>
mechan isms</w>
vers ity</w>
不 要
正确 的
inclu des</w>
op tions</w>
百 分
s mar
t ment</w>
远 </w>
easi er</w>
时 的
prepa red</w>
时候 </w>
平 民
关系 的
中国 经济
um -
re conc
defin ed</w>
目标 的
再 生
si vely</w>
以色列 的
r ou
p ul
langu age</w>
impl ications</w>
中 获
se tting</w>
su ffer</w>
政治 家
ter ed</w>
sen ior</w>
f il
疲 软
th an
oll ah</w>
degre e</w>
is ed</w>
driv ing</w>
动 物
担忧 </w>
re vers
le verage</w>
驱 动
s mo
d less</w>
di min
形 势
e ding</w>
债权 人
采取 了
cy cle</w>
收入 的
摧 毁
细 胞
on ing</w>
w al
法国 </w>
部门 的
到 目前
召 开
vir tually</w>
企业 的
amoun ts</w>
12 月
s atis
限 制</w>
mon it
addres sing</w>
maintain ing</w>
ge org
ex ten
必 然
正 义
mo bil
ur ies</w>
vis it</w>
投资 的
全 民
议 程
beij ing</w>
美国 经济
谴 责
star ting</w>
pre fer
人 数
实 体
艰 难
每 个
就 在
乐 观
depend ent</w>
lear ned</w>
par ad
prot ests</w>
mo tiv
票 </w>
ca using</w>
为 此
利 班
太平 洋
11 月
产生 了
be ar</w>
decisi on-
即使 是
p led
此 外
ag ement</w>
纳 德</w>
m iti
以 往
inev itable</w>
int en
里 的
aff ect</w>
高 度
oc to
pro gres
遵 守
hop es</w>
se ven</w>
已经 在
做 的
3 5</w>
相比 </w>
伤 害
支持 的
这 两个
sun ni</w>
非 法
建 筑
经 营
证 券
miti g
债券 </w>
ass emb
任 期
bub ble</w>
人 均
er do
保 留
immigr ants</w>
ma y
cust om
领导 的
comb ination</w>
如果 我们
sch em
exper im
criti cs</w>
高 级
t emp
教训 </w>
加 拿
co 2</w>
erdo ğ
ch a
过程 中
超 级
所 造成的
l er</w>
vie tn
但 这些
bor n</w>
é </w>
的 原因</w>
si ght</w>
peac eful</w>
g n
协 助
评 论
corpor ations</w>
sar ko
报 道
st op
的 时间
inter pre
guaran tee</w>
脱 离
su pre
t ely</w>
病 毒
了 对
互 相
共识 </w>
状 态
im pose</w>
否 认
under lying</w>
claim ed</w>
typ ically</w>
aggreg ate</w>
objec tives</w>
顿 </w>
pro spect</w>
erdoğ an</w>
阵 营
突 然
• </w>
税 率
resol ve</w>
名 义
acc um
短 缺
诚 然</w>
的 基础
指 导
优 先
进展 </w>
sust ain</w>
布 鲁
s an
palest ine</w>
tow ards</w>
中国 在
octo ber</w>
in her
暴 露
t ative</w>
reli ef</w>
declin ing</w>
终 于
pay ing</w>
g ave</w>
只 会
br inging</w>
transpar ency</w>
a sion</w>
tr ends</w>
s d
都 将
nation alist</w>
victim s</w>
发生 在
eng age</w>
称 为</w>
cal i
w on
论 坛
vo ted</w>
格鲁 吉
换 句
tru ly</w>
谨 慎
斯 特
能 在
本 </w>
阶 层
股 东
证 </w>
塔 利班
半 </w>
di versity</w>
医 生
偿 还
refl ected</w>
stati sti
ill u
oppon ents</w>
常 规
脱 欧
sub -
bl ing</w>
罗 马
es tig
protec tion
说 法
tr ig
cat astro
heal thy</w>
sec ular</w>
ival ent</w>
是 为了
sub sequ
co ordin
des ire</w>
世 俗
二十 世纪
ad ic
achiev ing</w>
军 </w>
哪 些
恐 慌
200 3</w>
不足 </w>
克里 姆林
immedi ately</w>
定 </w>
al leg
生 态
promis ing</w>
实施 </w>
de struction</w>
受 益
第二 个
基础设施 </w>
想 </w>
以 上</w>
以 便
grow n</w>
solid arity</w>
垄 断
sarko zy</w>
as ean</w>
play ing</w>
修 正
enter prises</w>
dro p</w>
vi d</w>
柏 林
credi ble</w>
imag ine</w>
concer ned</w>
道 路
dra w</w>
el ites</w>
fl ow</w>
他们 在
低 收入
解决 方案</w>
develop ments</w>
气 </w>
sw ed
额 </w>
comp on
a ver
以及 其他
i er</w>
使 其
之 时</w>
比 方
一 条
qu al
author itarian</w>
推 行
ser iously</w>
w it
也 应该
中国 政府
net works</w>
employ ed</w>
200 8
违 约
cho ices</w>
逆 转
十年 代
strength ening</w>
des per
perspec tive</w>
c ep
poor est</w>
现 象</w>
produc t</w>
prolifer ation</w>
建立 一个
是 由
必要 的
pres sing</w>
dynam ic</w>
战 斗
一 名
loo ks</w>
理解 </w>
p in
res ili
违 反
believ ed</w>
需要 </w>
ke t</w>
各 方
co t
restruc turing</w>
人口 的
出 来</w>
的 风险</w>
phys ical</w>
麻 烦
不 良
可 信
但 其
econom ically</w>
mo di
f ic
温 室
ob st
已经 成为
sol ve</w>
效 应</w>
heav ily</w>
regar dless</w>
一 起
pro p
le y</w>
fig ure</w>
op ening</w>
准 确
su sp
st yle</w>
d il
car ry</w>
on om
sel l</w>
control led</w>
inv estig
日 渐
人 道
负担 </w>
min ority</w>
secur ities</w>
diffic ul
propos als</w>
- year</w>
off ers</w>
贬值 </w>
文 章
从 来
判 断
经 过
陷入 了
年 龄
失 衡
gener ations</w>
美元 的
4 0
legitim ate</w>
解 </w>
不 如
fuel ed</w>
逐 步
出 售
re comm
v lad
a i
per su
as ing</w>
都 要
言 之</w>
她 的
¾ </w>
显示 </w>
借 款
lear ning</w>
mist ake</w>
objec tive</w>
g en</w>
suppor ting</w>
绝 大多数
twent y-
报 </w>
效 应
el ite</w>
国 外
de preci
古 巴
英国 的
更 大
dis ci
tem porary</w>
id ent</w>
te ach
exp anding</w>
promo ting</w>
indones ia</w>
支 撑
t c
社会 的
ex it</w>
要 素
ar ia</w>
n av
资 助
产 出
巴勒斯坦 人
放 在
si onal</w>
sha pe</w>
necess arily</w>
没有 任何
加 拉
场 </w>
bl ame</w>
尼日 利亚
re ments</w>
m ent
突 破
在 内的
弱 </w>
br us
m ar</w>
不管 是
1 6</w>
sup pl
b in
v </w>
tax pay
抵 制
永 久
defe at</w>
occur red</w>
内 战
现 金
失去 了
还 在
da vid</w>
朋 友
已 </w>
越 南
ta il</w>
quanti tative</w>
austr alia</w>
这样 </w>
determin e</w>
都 能
in sul
尊 重
广泛 的
四 分
产品 </w>
divid ed</w>
turk ish</w>
5 0年
lead s</w>
summ er</w>
n a</w>
dev ast
3 .
graph ic</w>
部 </w>
个 体
警 察
- up</w>
describ ed</w>
气 体
劳动力 市场
可 再生
b omb
on line</w>
还 能
的最 佳
强 大
数 十
减 轻
per sist
je wish</w>
太 阳
半 岛
197 0</w>
发 行
c amer
crim es</w>
p le
水 </w>
i or
e ight</w>
disci pl
化 为
liber alization</w>
是 美国
扭 曲
信 仰
回 答
到 的
we ight</w>
g ol
discus sion</w>
也 门
可能 导致
价值 观
en tr
上 去
层 面
dec ide</w>
pursu ing</w>
r ig
国 务
im ir</w>
流 入
fac e
urg ent</w>
vlad imir</w>
los ing</w>
vietn am</w>
的 行为
equ ivalent</w>
wor ry</w>
parliam entary</w>
ib an</w>
tal iban</w>
ban g
m ass
调整 </w>
已经 开始
assemb ly</w>
指 控
变 </w>
taiw an</w>
政治 </w>
h oll
sha re
di agn
所有 人都
性 别
增长 和
accep ted</w>
venezu ela</w>
institu tion</w>
会议 </w>
assum e</w>
没 能
8 0年代
提高 </w>
pos sibly</w>
密 切
peri ph
空间 </w>
理 念
距 离
expl an
ju dic
dial ogue</w>
j er
可 怕
比 率
perce ived</w>
研究 </w>
gir ls</w>
之 上</w>
fri ends</w>
复 兴
repor ted</w>
私 有
put ting</w>
ste ad
tem per
h ic
式 的
的可能 性
料 </w>
投资 于
领域 的
不 论
mater i
si </w>
sh ia</w>
有 限
浪 费
obst ac
twenti eth</w>
置 </w>
pres ence</w>
罗 </w>
领导 人</w>
死亡 </w>
安全 的
纳 入
tol er
冲 击</w>
exc ess</w>
ch es</w>
re view</w>
join t</w>
ou tr
us eful</w>
视 </w>
抵 押
一体 化
you th</w>
com promise</w>
终 结
阶段 </w>
usu al</w>
repres ents</w>
国家 和
它 </w>
此 次
sur r
帮助 </w>
su rely</w>
deep er</w>
称 之
两 者
te am</w>
el ing</w>
rus si
根 源
改善 </w>
ear th</w>
情绪 </w>
chan ge-
东 亚
ne u
an a</w>
batt le</w>
气候 变化的
国 债
coll abor
时代 的
排 除
nig er
实现 了
情 形
demonstr ated</w>
human itarian</w>
pur pose</w>
dis crim
j </w>
tr ack</w>
sh o
50 0</w>
绝 非
病 </w>
trou ble</w>
appar ent</w>
破坏 </w>
灾难 </w>
框架 </w>
重 塑
经常 项目
gul f</w>
ex ist</w>
销 售
kn ows</w>
集中 在
困 扰
悲 剧
200 0年
ap s</w>
的 唯一
cros s-
径 </w>
mic ro
仅仅 是
减 速
渴 望
exac erb
q a
bil ities</w>
tan e
客 户
减少 </w>
换句 话说</w>
我们 应该
抓 住
快 </w>
co -
加 以
in ess</w>
养 老
一 部分
h ours</w>
obser vers</w>
多 么
t edly</w>
目标 是
sign s</w>
ev ent</w>
殖 民
eng agement</w>
establ ishing</w>
dram atically</w>
对 </w>
值 </w>
起 了
techn ical</w>
能源 </w>
近 期
认 真
留 在
v ill
institu te</w>
! </w>
ex change-
落 </w>
sur prise</w>
f ying</w>
col on
relig ion</w>
dram atic</w>
教育 和
pol l
pre mi
play ers</w>
versi ties</w>
不 利
中 心</w>
疟 疾
错 </w>
plan ning</w>
东 欧
马 克
一 份
暂 时
- based</w>
基金 </w>
anc y</w>
uni versities</w>
致 命
issu ed</w>
技术 的
territ orial</w>
a ks</w>
four th</w>
encour aging</w>
目 的是
最 初
com for
per f
p as
加 坡
超过 了
on ic</w>
s ac
me ant</w>
前所未 有的
克里姆林 宫
ed a</w>
存 款
完 美
第 四
葡 萄
s car
publ ished</w>
con st
竞争 力
contribu ted</w>
存在 的
priv ate-
衡 量
结果 是
terror ists</w>
underst ood</w>
就业 </w>
共产 党
si bilities</w>
那 种
ch ur
减 税
也 能
it y-
做 好
20 0</w>
ul ate</w>
revolu tionary</w>
fig ures</w>
1 ,
invest ing</w>
di ver
法 案
ent er</w>
员 </w>
也 必须
conn ected</w>
deb t-
否 决
设 备
形式 的
行动 的
r ace</w>
虑 </w>
廉 价
rob ust</w>
有 能力
exac tly</w>
h es
伊斯兰 国
mon opol
shoc ks</w>
aug ust</w>
抵 消
in ated</w>
ann ually</w>
per cep
ber lin</w>
p es
t ability</w>
争 取
纳 粹
在 199
emerg ing
k o</w>
inter ven
g ained</w>
崛 起</w>
积 累
ro c
e able</w>
施 加
crim inal</w>
会 的
consist ent</w>
s cr
债务 的
res ource</w>
最 低
拉 夫
il ed</w>
occur </w>
做 </w>
pak ist
exchange- rate</w>
林 斯
欧洲 和
监管 </w>
and -
固 定
extrem ely</w>
只有 在
q e</w>
书 </w>
genu ine</w>
对 外
repres ent</w>
期 望
我们 </w>
ess entially</w>
权 力的
n az
prev ail
e t
uni que</w>
没有 人
ed -
h en
体系 的
es h</w>
ed ge</w>
trig ger
inde x</w>
dis put
civil ian</w>
比 </w>
beg un</w>
所 得
久 </w>
7 0
k h
diagn os
影响 力
re min
employe es</w>
每 天
产 量
clos ely</w>
partn er</w>
问题 在于
起 的
都 必须
moder ate</w>
at or
其 在
hal f-
格鲁吉 亚
di stor
恐怖 分子
addres sed</w>
mal aria</w>
st em</w>
s cor
un sustainable</w>
now ad
requi rements</w>
nowad ays</w>
巴 沙
所 需的
对 中国
decision- making</w>
p aper</w>
覆 盖
大 萧条
proc esses</w>
adop t</w>
pri orities</w>
更不 用
end ers</w>
struc tures</w>
过去 的
海 外
良 好的
m ention</w>
sh owed</w>
arrang ements</w>
简单 </w>
over -
man date</w>
high ligh
rati onal</w>
surpris ing</w>
settl ement</w>
实 践
prov in
使 用</w>
ab b
战争 的
于 是
chan cell
col omb
bil lions</w>
n ers</w>
at titu
的 货币
patter n</w>
提供 的
af ter
名 </w>
hos p
某 个
万 亿美元</w>
会 导致
放 松
ro bert</w>
lin ked</w>
recogn ition</w>
h iv</w>
des ign</w>
kep t</w>
震 惊
compl ic
医 学
r il</w>
因为 他们
策略 </w>
d ly</w>
prof it</w>
u li
de pos
3 00
感 染
温室 气体
无 力
系统 的
pen sion</w>
却 是
y l
原 本
中 期
sustain ability</w>
ar ch</w>
ro l
患 者
sel s</w>
这样 一个
dist inc
educ ated</w>
反 过
一 下
或 是
景 </w>
en ess</w>
nu tr
ambiti ous</w>
游 戏
&#9 1
fe wer</w>
权 威
3 ;</w>
j ord
emer ge</w>
terr or</w>
讨 论</w>
的一 些
电 子
ac compan
lar ge-
诺 贝尔
ti le</w>
工作 的
&#9 3;</w>
干 涉
ge o
新 加坡
&#91 ;</w>
fru str
办 公
st a
局 面</w>
心 的
inter v
即使 在
立 刻
一 点
uc t
接 触
壁 垒
进行 </w>
def end</w>
sec u
re ports</w>
行 政
导 向
中 有
金融 机构
小 的
un il
f em
不 了
ad ing</w>
di e</w>
蔓 延
produc ers</w>
引发 了
目 的</w>
no bel</w>
surv ival</w>
produc ing</w>
o ec
ation ary</w>
数 </w>
cle an</w>
水平 的
g ender</w>
sing ap
happ ens</w>
ib ility</w>
es sions</w>
ap ril</w>
transf er</w>
故 事
ph ili
con gres
顾 问
a ids</w>
stagn ation</w>
下 滑
专 注
全球 化的
开 展
oppos ite</w>
害 怕
qa eda</w>
降低 了
purch ases</w>
for es
低 估
结 合
dou ble</w>
chancell or</w>
ess ed</w>
enc ing</w>
histor ic</w>
a th
ch ers</w>
也 可能
str a
领袖 </w>
生命 </w>
2 2</w>
represent atives</w>
支持 者
ch air
s dr
实 质
ch ron
fin ding</w>
显 得
il ing</w>
uc k</w>
criti cism</w>
pos ing</w>
fail ing</w>
群 众
进行 的
si on
appe ared</w>
更不用 说
经济体 </w>
端 </w>
英 格兰
合作 伙伴
than ks</w>
交易 </w>
发 电
一直 是
execu tive</w>
唯一 的
tre at</w>
丰 富
pr ud
的 发展
volati lity</w>
cont ent</w>
brus sels</w>
语 言
称 为
pl ants</w>
t- wing</w>
remain ing</w>
冒 险
主 流
举 行的
ess ing</w>
明 的
b arg
更 是
f al
美国 政府
伊拉克 的
塔 尼亚
2 4</w>
st ance</w>
补 偿
此 前
constr aints</w>
一 家
implem entation</w>
em en</w>
pr ic
emerg ence</w>
gene tic</w>
empha si
很 容易
最近 </w>
bal anced</w>
th u
id es</w>
南 亚
estim ate</w>
层 次
华盛顿 </w>
grad ually</w>
负 面
两 位
poll ution</w>
net work</w>
remark able</w>
经济 和
in adequate</w>
青 年
只 不过
贸易 和
饱 受
manag ing</w>
自由 的
accep table</w>
supre me</w>
贸易 </w>
兑 现
匈 牙
审 判
本 地
wel come</w>
与 其他
cr ime</w>
竞争 力</w>
reason able</w>
但 他
integr ated</w>
越来越 多的
can ada</w>
rel uct
的最 新
pass ed</w>
担 保
也 就
oec d</w>
资本 </w>
t ack
at edly</w>
vo tes</w>
过 剩
的人 民
国家 都
在 许多
从 事
mit ted</w>
resp ec
bankrup tc
所 在
domin ated</w>
冲突 的
严 厉
large- scale</w>
就 连
法 官
布什 政府
不足 以
收 益</w>
it ably</w>
wa ve</w>
不可 持续
pre viously</w>
文 </w>
恶 化
成 熟
突 尼
re al-
ex tra
更 大</w>
con ven
c ow</w>
r ac
巴 斯
才 会
laun ch</w>
innov ative</w>
讽 刺
incenti ve</w>
有 </w>
wa it</w>
缓 解
heav y</w>
ele br
hom es</w>
很多 人
de tail
管理 </w>
g es</w>
专 制
weak ness</w>
c elebr
急 剧
protec ting</w>
inclu ded</w>
r ies</w>
的 公共
人 群
mo b
这个 国家
tel ev
dis pu
sim ul
b a</w>
在 这样的
经 合
risk y</w>
的 核
主义 者</w>
中国 领导人
不 需要
拿 出
觉 得
educ ational</w>
实现 这一
南 部
复杂 </w>
human s</w>
预测 </w>
煽 动
信 </w>
这 位
st ake</w>
考 验
or ing</w>
外 围
b ab
prac tical</w>
投 机
不 少
w is
bott om</w>
现在 的
s li
ig ns</w>
ver ing</w>
剑 桥
an x
马 里
间 的
没 人
情况 下
l au
h ost</w>
depend ence</w>
享 受
mean ing</w>
singap ore</w>
训 练
ital ian</w>
concep t</w>
引 导
主义 和
shoc k</w>
iraq i</w>
elimin ate</w>
ast s</w>
卡 梅
导致 的
ili ation</w>
是 最
巴西 </w>
for um</w>
一 段
实 力</w>
ific ation</w>
sh ad
t ch</w>
in str
私 营
targe ted</w>
che ap</w>
清 晰
prof ound</w>
embr ace</w>
昂 贵
200 7年
情 </w>
emerg ency</w>
m ag
清 洁
s ays</w>
真 主
georg ia</w>
部 署
star ters</w>
律 宾
万 人
ch ile</w>
内 塔尼亚
sw it
cr atic</w>
菲 律宾
幸运 的是</w>
20世纪 80年代
时刻 </w>
葡萄 牙
信 心</w>
赋 予
设 立
ph ere</w>
建议 </w>
不 安
6 月
k ar
the ast</w>
苏 格兰
之 外
大 会
内塔尼亚 胡
regar ded</w>
黄 金
分 </w>
introduc ed</w>
19 </w>
g al</w>
回报 </w>
bor row</w>
干预 </w>
b ed</w>
ag m
boo sting</w>
res c
ac cur
call ing</w>
我们 在
ex posed</w>
苏 丹
联盟 的
industr i
phil os
aggres sive</w>
por tu
定 居
动荡 </w>
ide ological</w>
将 成为
anti cip
cl in
象 征
完 整
sc and
h ad
pers on
cent uries</w>
enab led</w>
func tion</w>
threat ened</w>
消费 </w>
prim arily</w>
化 学
inten si
a hu</w>
间 </w>
利 息
leg acy</w>
restric tions</w>
ori ented</w>
yi eld</w>
re sist
ma xim
tar y-
的 银行
pres sures</w>
布 莱
全球 金融危机
纷 纷
抛 弃
协议 的
奇怪 </w>
li e</w>
有 力的
co stly</w>
20 30</w>
taxpay ers</w>
成 果
穷 人
s cope</w>
姆 </w>
审 查
har v
affor d
in sist
ger man
那 个
法律 </w>
u g
tr ib
n an
n ine
net any
转变 </w>
真 相
诊 断
毫无疑 问</w>
camer on</w>
首 要
some one</w>
疾病 </w>
m ent-
相关 的
迫 切
生 的
二 十年
ann i
pl ed</w>
new sp
r if
b s</w>
netany ahu</w>
共 享
gre w</w>
d d
煤 炭
还 必须
更 好地
法 治
在 这些
决策 </w>
z b
声 音
ser ies</w>
suffer ed</w>
小 组
ne ver
运 转
利益 的
conclu ded</w>
sy n
肯 尼亚
这个 问题
con dem
其 中的
也 不能
identi fy</w>
相对 较
来 看</w>
有效 </w>
某种 程度上
eng land</w>
t ough</w>
f ra
严 峻
7 5</w>
大 多
仍然 是
eng aged</w>
contr acts</w>
孟 加拉
ro te</w>
团 队
are ly</w>
s cot
获得 的
car ried</w>
char ge</w>
head s</w>
丧 失
so f
获 胜
emerging -market</w>
ob viously</w>
p t</w>
sol di
世界 其他
的最 大
f ate</w>
pro hib
subsi di
能 力的
op posed</w>
lit er
mod est</w>
何 种
整 合
push ed</w>
re jected</w>
临 时
tic le</w>
min ent</w>
depar tment</w>
反对 </w>
任 </w>
or ed</w>
主 宰
inter nation
升 </w>
cont em
repe atedly</w>
和 中国
h it
vi able</w>
物 价
决 </w>
ul ated</w>
打 击</w>
一 开始
s il</w>
not ably</w>
成员 国的
wi der</w>
s in</w>
分 别
也 不是
发展中 国家的
prev enting</w>
da ily</w>
tun is
compe t
期 待
200 5年
ord ination</w>
负 责任
无 人
compe te</w>
的 投资
simul tane
pp ing</w>
的 年
他们 </w>
effec tiveness</w>
approach es</w>
dre am</w>
ve hic
bl ack</w>
bar ak</w>
影响 的
岗 位</w>
wor d</w>
演 讲
fa ith</w>
远 的
更 高
he zb
誉 </w>
在一 起</w>
le a
excep tion</w>
接受 </w>
注意 力
co ver</w>
strong ly</w>
伊朗 </w>
accoun ting</w>
in sp
注 入
ten ed</w>
电 脑
密 集
应该 是
助 长
很 有可能
吸 收
ti lity</w>
bo dies</w>
武器 </w>
n e</w>
下 了
结 论
fos sil</w>
l a</w>
finan ced</w>
近 几年
cap abilities</w>
分 享
的 观点
认 定
为 其
简 言之</w>
！ </w>
st ay</w>
proc e
attr active</w>
上 了
c as
本 质
习 惯
push ing</w>
emp ire</w>
gdp 增长
价格 的
ten ing</w>
i ent</w>
决 心
of -
约翰 </w>
r a</w>
iz es</w>
cali for
clos ed</w>
pos s
mater ial</w>
十 年</w>
贡献 </w>
r i</w>
合 适
w rote</w>
一 轮
德 里</w>
移民 </w>
sal es</w>
甚至 是
的 中国
private- sector</w>
规 范
human ity</w>
ab sor
an ism</w>
k os
军 方
iti ve</w>
aut onom
秩序 </w>
政策 制定
mom ent
项 </w>
m ere</w>
毁 灭
undermin ing</w>
transf ers</w>
外汇 储备
压 倒
t ell</w>
秘 密
ay ed</w>
经验 </w>
r ying</w>
首 席
var i
wom an</w>
更 具
退 欧
b y
产 权
bal ancing</w>
修 改
200 2</w>
hezb ollah</w>
cat al
fa ther</w>
德国 和
in s
em atic</w>
niger ia</w>
ul ts</w>
获 取
作为 一个
仍 有
s enti
可能 </w>
这些 人
防 御
engine ering</w>
好 消息
k illing</w>
一 国
igh t
bail out</w>
conduc ted</w>
nine teen
ph enom
phenom en
sen si
癌 症
govern mental</w>
ch amp
合 同
首 脑
spe ak</w>
accompan ied</w>
2 1</w>
bas h
财政 部长
benef ic
‘ </w>
trans actions</w>
ne ar-
ignor e</w>
sor t</w>
圣 战
ti ous</w>
b os
波 斯
ap ply</w>
qu o</w>
最 佳
萨 达
nat ur
er up
fail ures</w>
s add
fe br
deter ior
par ents</w>
并 将
pol ls</w>
形 成了
分歧 </w>
办公 室
瑞 士
mean ing
pack age</w>
fo ot
本 人
巨 大</w>
chair man</w>
withdraw al</w>
和 对
stat ement</w>
ac tual</w>
ro se</w>
sp an
attemp ts</w>
我 在
各 个
马 来
花 费
+ </w>
pres sive</w>
党 的
cr af
没有 什么
oblig ations</w>
经济 增长</w>
母 亲
步 骤
7 月
合理 的
a side</w>
看 上去
fel t</w>
ac compl
har m</w>
反 而
dict ator
制度 的
更多 地
im mun
se as</w>
选举 中
特 定
ad or</w>
exam ples</w>
bankruptc y</w>
om ing</w>
ear nings</w>
潜 力</w>
int ensive</w>
fr anc
主要 是
confron t</w>
解释 </w>
两 次
看 似
predic table</w>
appreci ation</w>
deli ber
ap prov
trans port</w>
在 中国
领导 人的
se arch</w>
业 务
罗 姆
ati on-
西 亚
变 为
政府 在
criti ci
febr uary</w>
唐 纳德</w>
br u
幸 福
7 -
记 者
件 </w>
ph arm
jord an</w>
sugg ested</w>
lin k</w>
纠 正
supp lies</w>
bub bles</w>
格 </w>
方针 </w>
real istic</w>
israel is</w>
risk -
surpris ingly</w>
stoc k
行为 的
健康 </w>
func tioning</w>
人民 的
教 授
重 的
assess ment</w>
相信 </w>
机 遇
un certain</w>
增 </w>
关 税
comple tely</w>
200 1年
senti ment</w>
mo il</w>
剑桥 </w>
tur moil</w>
建立 在
pu ts</w>
nor ms</w>
重要 的</w>
r on</w>
问题 上</w>
progres sive</w>
contribu tions</w>
dest abil
spe ed</w>
以 至于
l ic
re place</w>
arg uments</w>
el ements</w>
bu ying</w>
能 让
mis s
金 砖
inter est-
log ic</w>
20 20</w>
创造 了
服务 业
流 向
三 年
所有 人
ha z
予 以
i a
奥 斯
7 0年代
~ </w>
sur vive</w>
inv asion</w>
但 它们
bud gets</w>
mu tual</w>
ti s
伊拉克 </w>
egyp tian</w>
associ ation</w>
resear chers</w>
士 兵
j in
er ly</w>
con vention</w>
oc ean</w>
2 年</w>
相 应
爆 炸
vuln er
disput es</w>
之 处</w>
补贴 </w>
智 利
val uation</w>
ali ke</w>
rele ased</w>
公 布
correc t</w>
他们 所
命 </w>
substanti ally</w>
放缓 </w>
all ows</w>
cou p</w>
腐败 </w>
规模 </w>
每 一个
si x
co ordination</w>
以 上
法国 和
签 订
per pe
的 核心
纳 </w>
fund ed</w>
流 行
剥 夺
大 众
艺 术
glob ally</w>
a war
在 很大程度上
ed y</w>
adv ances</w>
enh ance</w>
comp el
一些 人
weak er</w>
govern or</w>
govern ing</w>
对 话
human -
commun ism</w>
沃 尔
通胀 </w>
st af
califor nia</w>
自 从
å </w>
t our
的 改革
了 其
如果 你
充 足
这样做 </w>
专注 于
推 迟
je ws</w>
w ind</w>
之 路</w>
ro ads</w>
condi tion</w>
到目前 为止</w>
家 族
he ar
new ly</w>
fur ther
pre dec
一 半
le f
共和 国
embr ac
manag ers</w>
千 年
评 级
承认 </w>
起 诉
predec ess
集团 </w>
融 入
严 肃
hel ps</w>
说 是
董 事
ing u
congres sional</w>
g ary</w>
wa ke</w>
投资 和
的 市场
制 药
总 值
occup ation</w>
inev itably</w>
理 性
state- owned</w>
分 子</w>
残 酷
s om
简单 的
倾向 于
tr ial</w>
saf eg
safeg u
i p</w>
相 对于
组 合
presid ents</w>
2 8</w>
pakist ani</w>
效 率</w>
h us
生 素
另一 方面</w>
色 </w>
frag ile</w>
深 度
gener ated</w>
型 的
do es
deli vered</w>
does n</w>
ou ts</w>
e a</w>
学 院
适 用于
oper ate</w>
re alize</w>
i be</w>
ac knowled
也许 是
一步 </w>
s oph
制裁 </w>
spec ies</w>
明显 </w>
例 外</w>
res or
财 务
明 年
threat ening</w>
vo ting</w>
success fully</w>
出 资
at mos
fall s</w>
但 对
强 的
pre f
用 户
convinc ed</w>
的最 后
implem enting</w>
happ y</w>
德 拉
影响 力</w>
ab solu
很 大的
chris tian</w>
得 不到
以 后</w>
ili ans</w>
telev ision</w>
国际货币基金 组织</w>
沦 为
前 任
seem ingly</w>
扭 转
动 员
北 部
nuc lear
结构 </w>
decis ive</w>
cop en
有 限</w>
i on
sol ar</w>
ver sion</w>
科 索
学 术
afford able</w>
和 国际
分 散
之间 </w>
庞 大的
医 院
容 忍
偿 付
oc ca
t ests</w>
declar ation</w>
in cid
人 物
stri ke</w>
救 助
希腊 </w>
现 任
5 年</w>
us ers</w>
倒 闭
she et</w>
不平等 性
平 台
坚 定
exp ense</w>
m agn
反过 来
复杂 的
弹 </w>
resc ue</w>
ob s
无 关
mil len
领导 层
差 </w>
证明 </w>
看 来
的一 种
oper ating</w>
迄 今
es cape</w>
职 </w>
spec ific
nutr ition</w>
copen ha
报 纸
cross- border</w>
出 现在
flex ibility</w>
金 正
s we
成 果</w>
卡梅 伦
con tain</w>
条 款
全 力
go t</w>
企业 和
宗 商品
在 国际
russi ans</w>
空 气
we a
phili pp
准备 </w>
风险 的
sen ate</w>
b old</w>
am ent</w>
marke t-
cen ters</w>
监 控
的 结果
不 上
想 法
fl a
journ alists</w>
其他 人
成就 </w>
不 应
inf ec
预算 赤字
印 尼
initi al</w>
过程 中</w>
领 先
eth ical</w>
越来越 多
意愿 </w>
科索 沃
conc e
总统 的
关 闭
medi um-
slow ly</w>
零 售
第三 </w>
lat ter</w>
一个 </w>
smar t</w>
b loo
城市 </w>
日 的
share holders</w>
g ence</w>
纪 念
swed en</w>
aw are</w>
布 雷
mo ham
彼 此
负责 </w>
pr agm
ad ed</w>
off set</w>
基督 教
au to
ide ology</w>
soldi ers</w>
还 将
2 7
ar ticle</w>
文 化</w>
的 环境
此 类
意 料
th eless</w>
穆 巴拉克
的确 </w>
21 世纪
m c
的 安全
never theless</w>
as c
organ ized</w>
li fe
cre ates</w>
keyn es</w>
corrup t</w>
认 可
犹太 人
instr uments</w>
及 </w>
门 </w>
民主 国家
tre ated</w>
以色列 </w>
proc ed
战 后
und ou
undou b
算 </w>
explan ation</w>
明确 的
欧元区 </w>
我们 所
等 待
il legal</w>
k u
斗争 </w>
披 露
气候 变化</w>
男 性
依赖 于
subsequ ent</w>
fed er
loo ked</w>
weal thy</w>
中 共
民 意
下跌 </w>
亚洲 </w>
underst and
预 期</w>
实 的
attr act</w>
的情况 </w>
物 质
re verse</w>
对 欧洲
v ac
有 多
抵 抗
r id
t om
暴 力</w>
ma th</w>
c k</w>
出 来
谈 </w>
multi -
copenha gen</w>
staf f</w>
监管 者
塞 浦
portu gal</w>
head ed</w>
negoti ating</w>
r out
giv es</w>
停滞 </w>
bang lad
resol ved</w>
199 0s</w>
操 作
欧盟 成员国
rec k
fores e
斯 基
而 这些
结 核
fir st-
j os
做 出了
初 </w>
appe al</w>
colomb ia</w>
点 是
基础 的
的 原因
ap ped</w>
loc k</w>
侵 犯
1. 5</w>
su red</w>
服务 的
further more</w>
ain t</w>
y emen</w>
主权 债务
con sul
塞浦 路
表 面
e ag
极 其
上 个月
declin ed</w>
re action</w>
row n</w>
accoun tability</w>
public ly</w>
discus sions</w>
银行 和
demo graphic</w>
电 影
民众 的
rul ed</w>
interest- rate</w>
nuclear -
reli able</w>
加拿 大
conduc t</w>
b arely</w>
s aying</w>
特征 </w>
keyn es
工 厂
sur ge</w>
足 球
功 能
quar ters</w>
第二 次
renew able</w>
sk illed</w>
还 可以
雇 主
n arr
conclu sion</w>
is tic
gu id
伤 害</w>
win d
domin ant</w>
有效 地
offer ing</w>
站 在
合法 性</w>
主 教
更 好</w>
为 例</w>
再 一次
undoub tedly</w>
coun t</w>
1 年</w>
奥巴马 的
al i</w>
后 来
narr ative</w>
re str
war ning</w>
经合 组织
缺陷 </w>
am i</w>
政 变
tar i
s pre
mu barak</w>
de -
ati zation</w>
im por
成员 </w>
negoti ate</w>
运 作
监 狱
al ty</w>
infl ows</w>
al ities</w>
tax ation</w>
mob ile</w>
建立 了
企业 家
o do
spec i
kos ov
补 充
地 带
当 的
se t
巴黎 </w>
sol v
扩 大</w>
遗 传
as tic</w>
西方 的
乔 治</w>
isl ands</w>
效 的
el ines</w>
世界 大
申 请
范围 内
enab ling</w>
g em
观 念
gr ounds</w>
contribu tion</w>
无 所
综 合
n esses</w>
main stream</w>
k er
商 </w>
surpl uses</w>
be t</w>
良 好
twenty- first</w>
在 不
一 套
我们 对
demonstr ate</w>
e ing</w>
nom inal</w>
匈牙 利
5 月
syst emic</w>
变 成了
one- third</w>
initi ally</w>
女 孩
立 即
2 3</w>
独立 的
是否 会
泰 国
赢得 了
奥巴马 政府
at er
消 极
火 </w>
custom ers</w>
他 </w>
ch er</w>
拉 斯
exerc ise</w>
ide al</w>
交 换
flex ible</w>
声 </w>
v an
高 昂
国务 卿
ing -
莫 斯科
en for
pharm ac
vol un
approv al</w>
jo ined</w>
de ad</w>
曼 </w>
比 重
加 大
而 对
背 后的
这 也
har der</w>
所谓 </w>
风 </w>
游 说
spec ul
的 所有
转型 </w>
si gh
ext ended</w>
y ers</w>
vers ary</w>
ch -
有关 </w>
大学 的
interv entions</w>
参 议院
grad u
dem anding</w>
a str
own ership</w>
马 上
re bel
袭 击</w>
acad emic</w>
ro m
shif ting</w>
k new</w>
不过 </w>
minim um</w>
devast ating</w>
weak en</w>
asp ir
v ent
转 化为
purch ase</w>
success or</w>
contr adic
cl es</w>
fri end
现 </w>
ra rely</w>
精神 </w>
professi onal</w>
智 慧
st ems</w>
k an</w>
欧元 的
ash ed</w>
而 已</w>
工业 化
方 的
soph istic
is ions</w>
ther hood</w>
而 被
该 地区的
mal ay
1 0年
政权 的
时间 的
工 会
ro g
就 将
提 醒
tion ed</w>
此 </w>
exp anded</w>
物 种
ex pressed</w>
凸 显
展 示
app lied</w>
ambiti ons</w>
ap art</w>
产 能
的一 切
强 </w>
存在 着
coun ter</w>
无 可
分 离
var iety</w>
降低 </w>
可再生 能源
fix ed</w>
活 跃
可能 的
自己 </w>
理事 会
组成 的
ul a</w>
更多 </w>
iv es</w>
cy ber</w>
rene wed</w>
共同 的
n ight</w>
st ress</w>
庇 护
threat en</w>
im age</w>
pay ment</w>
控制 的
mos cow</w>
更 糟糕
pain ful</w>
lo y
全球 金融
运 用
极 大的
紧缩 </w>
attr ibu
但 也
人 才
uni ons</w>
19 60</w>
地位 的
prot est</w>
periph ery</w>
破坏 了
imper ative</w>
欧洲 国家
mar ked</w>
p ass</w>
近 年
popul ism</w>
神 经
这 笔
de als</w>
resul ted</w>
am ed</w>
秘 书
pat ri
大 宗商品
ger -
isl and</w>
困境 </w>
在这 方面</w>
il s</w>
消 失</w>
履 行
许多 国家
b adly</w>
的经济 增长
reve aled</w>
萨 尔
并不 意味着
南 欧
moment um</w>
r id</w>
影响 到
实 </w>
的 作用</w>
让 人们
突尼 斯
延 长
饥 饿
weak ening</w>
predic t</w>
particip ants</w>
更 深
哈 拉
boo ks</w>
相同 </w>
2 7</w>
周 边
延 续
shr in
fundament ally</w>
im port</w>
excep t</w>
并不 能
improv ement</w>
检 查
看 作
额 外
已 成为
he gem
tunis ia</w>
financi al-
法国 的
问 责
rul ers</w>
莫 迪
end or
背景 下</w>
长 达
d ur
re put
stor ies</w>
er ous</w>
ne ther
已经 被
在 线
继 任
bloc k</w>
的 自由
方向 </w>
re placed</w>
仍 是
c z
季 度
bir th</w>
记 忆
transpar ent</w>
chron ic</w>
tr igg
需求 的
consolid ation</w>
re d
填 补
du b
fac ts</w>
re turned</w>
的方式 </w>
relation ships</w>
中 等
便 是
参与 者
土耳其 </w>
in -
she ets</w>
bra in</w>
下降 到
tin y</w>
wis dom</w>
yi elds</w>
1 月
生活 的
语 </w>
counter parts</w>
an ch
ag ues</w>
说 法</w>
encour aged</w>
susp ic
miss ile</w>
hun ger</w>
做 法</w>
kosov o</w>
基本 上
charg es</w>
房 价
compens ation</w>
um p
明显 的
哈 根
电 力
当 </w>
op ened</w>
事 故
dis h</w>
追 随
减 排
re ad</w>
trad ition</w>
都 无法
dis ap
concer ning</w>
3 年</w>
win ning</w>
4 00
确 认
frequ ently</w>
happ ening</w>
s ligh
v ity</w>
tw ice</w>
网络 </w>
surve y</w>
本 哈根
w ol
义 务
insur g
居 住
繁荣 的
陷 阱
di verse</w>
因为 它们
哥 本哈根
义 </w>
的 工作
squ are</w>
传统 的
白 宫
appar ently</w>
这一 切
es cal
取得 的
联合国 安理会
lea ves</w>
simultane ously</w>
weak ened</w>
都 被
s and
re jec
成员 国</w>
b om
ef ul
技术 和
nar row</w>
deb ates</w>
英 镑
198 9</w>
my an
纳税 人
ign ers</w>
bl air</w>
ap ers</w>
e yes</w>
blo od</w>
oper ation</w>
meas ured</w>
授 权
扩张 </w>
borrow ers</w>
后 代
可 谓
发 放
也 需要
compu ter</w>
de aling</w>
光 </w>
大 屠杀
ad verse</w>
doc tr
20世纪 70年代
外 界
采取 行动</w>
开 启
的 观点</w>
innov ations</w>
发 起
激励 </w>
as is</w>
其 对
出 台
的 速度
myan mar</w>
药 品
po int
令 </w>
span ish</w>
所 作
cre te</w>
富 有
h in
nether lands</w>
ti li
a x
k il
继 承
divid e</w>
日 元
civ ilians</w>
l acks</w>
x on</w>
国家 安全
德 里
会 对
strugg ling</w>
cour ts</w>
可 行
印度 和
诱 惑
ref used</w>
cour age</w>
el ine</w>
马 拉
neg l
dis mis
mist akes</w>
ag an</w>
4 .
大 概
几乎 所有
di vis
discrim ination</w>
也 同样
war ned</w>
潮 </w>
p ain</w>
前景 </w>
ail and</w>
做 得
prov en</w>
german s</w>
cap ture</w>
都 可以
n ine</w>
ful l-
la sting</w>
inclu sion</w>
谈判 的
今 后
催 生
thir ds</w>
ev al
guarante es</w>
g am
to b
5 -
i ef
ukra in
enti t
战 胜
斯 大
br ics</w>
构 成了
他们 对
地 中
盈 利
facil ities</w>
的关键 </w>
难 </w>
sp on
物 理
dis placed</w>
pris on
t ou
一 再
sup pos
bro therhood</w>
me t
提 议
b all</w>
在 其他
大量 的
m p
注 定
截 然
多 种
了一 场
parti san</w>
遭 到了
suppos edly</w>
th ailand</w>
就 是</w>
之 外的
最 好的
li ved</w>
至少 在
排放 </w>
之 际
丹 麦
chem ical</w>
仇 恨
tec h</w>
暗 示
201 6年
plac ing</w>
di versi
慈 善
将 军
歧 视
broad ly</w>
也 因此
go t
政 权</w>
塞浦路 斯
欧元区 的
开放 </w>
低 利率
mat ch</w>
alternati ves</w>
不 愿意
经济 发展
advant ages</w>
声 明
ish es</w>
complic ated</w>
推 广
税收 </w>
tri als</w>
proper ly</w>
的 海
教育 的
orig inal</w>
另 一种
sel ling</w>
师 </w>
很 有
ken ya</w>
出 生
不 出
差异 </w>
做 到
discipl ine</w>
好 像
4 年</w>
的大 规模
do z
事 业
生产 总值
人道 主义
cycl ical</w>
出口 </w>
看 法
引起 了
valu able</w>
par k</w>
低 迷
destro y</w>
down ward</w>
鼓 吹
c lo
评估 </w>
counter -
direc ted</w>
ac </w>
政治 的
for d</w>
和 安全
ve z</w>
在 世界
刑 事
ans w
尔 西
不 必
来源 </w>
土耳其 的
专 利
的 威胁</w>
stop ped</w>
respon ses</w>
充分 的
prov ision</w>
mo di</w>
30 0</w>
行业 </w>
multi ple</w>
薪 酬
pursu ed</w>
西 欧
敦 促
敏 感
智 能
勃 勃
发展中 国家</w>
调查 </w>
ac commod
rais es</w>
大 于
引 擎
el ed</w>
抗 生素
em ph
p act</w>
ang ing</w>
数 十年
propor tion</w>
ang ers</w>
pl ant</w>
sch ol
换 取
tec h
ev </w>
人 力
价值 的
philipp ines</w>
a th</w>
c ar</w>
人口 </w>
高 速
ac cid
目 </w>
ang ela</w>
pharmac eu
隔 离
产 </w>
这 里
adju sted</w>
dist ingu
掩 盖
地 说</w>
plat form</w>
ultim ate</w>
lon ger-
和 解
af i</w>
foreign- exchange</w>
bigg er</w>
reti rement</w>
ff s</w>
挽 救
8 0
rec ord
dam aging</w>
的 债务
依 据
现代 化
肯定 会
兰 </w>
gener ating</w>
n ur
背 后
pro per</w>
思想 </w>
盈余 </w>
mo bility</w>
gu ide</w>
rad ic
的 小
意 见
vo ice</w>
来自 于
北 欧
pre sum
kin ds</w>
三 大
必须 在
地 理
sadd am</w>
尽 可能
萨 科
它 将
悲 观
人 为
以 下
respon sibilities</w>
19 30</w>
政党 </w>
adv ice</w>
强 势
stimul ate</w>
的 目标
社 交
sha res</w>
主要 的
g 20
ex emp
词 </w>
真主 党
meth ods</w>
慷 慨
资源 的
叙利亚 </w>
soci al-
以来 的
范围 </w>
货币 联盟
石油 和
199 9</w>
stre ets</w>
t ings</w>
所以 </w>
after math</w>
c ars</w>
当 中</w>
独立 </w>
min orities</w>
这一 问题
doc tors</w>
extr a</w>
身 体
ever -
基地 组织
恐怖 袭击
更 快
工资 </w>
不再 是
之 春
is on</w>
identi fied</w>
萎 靡
ro bo
风 暴
foc using</w>
移 动
down turn</w>
sud den
fri ed
t pp
威胁 到
毒 品
wast e</w>
ag ger
鼓 舞
沮 丧
st an
改 进
按 揭
ab use</w>
sud an</w>
un g</w>
own ers</w>
总 额
地中 海
pe ak</w>
的 战略
sudden ly</w>
ma h
pa ir</w>
com man
f ash
cu ba</w>
advoc ates</w>
10 月
阻 挠
prot est
所 能
fif th</w>
审 慎
pris on</w>
sh owing</w>
落 后
dil em
c ker</w>
争 夺
也 包括
克 斯
writ ten</w>
强 大</w>
劳 工
职 位
banglad esh</w>
ph ase</w>
乃 至
正确 的</w>
暴 跌
概 念</w>
sh in
ji had
t end
应 用
ext end</w>
均 衡
wor ried</w>
sub stitu
全 新
迹 象
pro to
斯大 林
pre par
ep id
实 在
特 里
anc e-
我们 已经
wea ther</w>
过去 </w>
和 全球
u t</w>
颠 覆
财政 政策
当 时</w>
更 容易
fail s</w>
m ol
b es
卡 扎
和 欧洲
ha i</w>
cha os</w>
雄 心
核武器 </w>
估计 </w>
毫无疑 问
了 美国
atmos phere</w>
和 政府
trans form</w>
形式 </w>
证据 </w>
规定 </w>
中 美
is is</w>
老 龄
hun gary</w>
材 料
的 同时
run s</w>
si sts</w>
dis par
mar ine</w>
完 善
阿 巴斯
far- reaching</w>
ti </w>
del hi</w>
运 输
b ing</w>
extrem ists</w>
middle- income</w>
k y</w>
的经济 </w>
two- thirds</w>
represent ative</w>
特 的
万 亿美元
受 益</w>
以 为
都 需要
stoc ks</w>
don ors</w>
typ es</w>
strength ened</w>
specific ally</w>
历史 </w>
模 糊
confron tation</w>
consist ently</w>
do or</w>
参与 </w>
同 一
它 是
这 让
t ex
国 王
千 万
程序 </w>
vol um
太阳 能
ci de</w>
lim iting</w>
先 进
mo ves</w>
切 尔
invest ed</w>
resili ence</w>
di men
会 有
动 机
财富 </w>
expendit ures</w>
希 拉
提高 了
to x
非 政府
bru tal</w>
con crete</w>
ec os
证明 了
c o</w>
compon ent</w>
regar ding</w>
priv il
转移 支付
aim s</w>
纠 纷
aband on</w>
防 务
repres ented</w>
撒 冷
路 撒冷
materi als</w>
stri kes</w>
适 合
ur ban
丑 闻
overwhel ming</w>
co verage</w>
指标 </w>
的 话
回 应</w>
跨 境
面 前
份 额
问题 上的
ser b
en rich
亚洲 的
看 待
叛 乱
出 版
propor tion
塔 赫
卡扎 菲
以及 对
br ings</w>
ar bit
au gh
你 的
tra vel</w>
foreign- policy</w>
trigger ed</w>
facilit ate</w>
v ig
如果 没有
哈 佛
care fully</w>
r an</w>
schem e</w>
转移 到
耶 路撒冷
就 要
secon d-
some what</w>
o il
particip ate</w>
consequ ence</w>
反映 出
出现 的
统治 </w>
动 力</w>
pro long
不 扩散
succe eded</w>
bre aking</w>
o to</w>
的一 项
2 6</w>
2 3
这些 问题
tech no
pr inc
成为 一个
融 合
自由 化
all ed</w>
surve ill
性 质
在 国内
几乎 没有
泡沫 </w>
养老 金
z z
内容 </w>
- led</w>
认 同
contro versi
约束 </w>
以色列 和
自 愿
纪 录
弱 势
millen ni
on ia</w>
盟友 </w>
参 议员
内 阁
表现 </w>
dispu te</w>
依 旧
s end</w>
capit al-
he ard</w>
之 处
perf ect</w>
世 贸
arg ues</w>
吸引 力</w>
vacc ines</w>
根本 不
错误 的
mortg age</w>
du tch</w>
sex ual</w>
medic ine</w>
活动 的
怀疑 </w>
力量 的
colle agues</w>
知 的
因为 这
secre t</w>
patter ns</w>
保护 主义
i e</w>
acc ord
幅 度
伊朗 核
c os
er ships</w>
渠 道
under pin
entrepreneur s</w>
m ap</w>
连 续
pr ize</w>
purch asing</w>
ecos y
艰 巨
投票 </w>
got ten</w>
日 常
or th
surveill ance</w>
普京 的
to ol</w>
ha ven</w>
reli ance</w>
struc tive</w>
tra -
pa th
enem ies</w>
无论 是
ent y</w>
在 最近
很 多</w>
out look</w>
su ic
separ ate</w>
pref er</w>
动 摇
讲 话
成本 的
undermin ed</w>
伴 随着
gr ade</w>
v ice</w>
statisti cs</w>
早 就
结 论</w>
um s</w>
死 于
equ ip
cr iter
plan ned</w>
wel l
地方 政府
公 约
但 我
资产 的
可以 从
下 来</w>
ad ver
consider ably</w>
arch it
ro ot</w>
ro man
philos oph
depreci ation</w>
thu si
en thusi
pl enty</w>
中国 人
ic ate</w>
埃 博
phenomen on</w>
stat ements</w>
创 业
是 如何
righ t-wing</w>
即将 到
最 有
非常 规
wa iting</w>
mee tings</w>
稳定 和
流 离
equip ment</w>
if y</w>
在 某些
policy making</w>
in duc
妨 碍
g aining</w>
199 7</w>
频 繁
arti fic
mi x
走 上
重 大的
benef ited</w>
prosper ous</w>
之 二
条 </w>
sophistic ated</w>
man ner</w>
neighbor ing</w>
6 5</w>
claim ing</w>
不仅 是
策 </w>
ic it
成为 了
货币 的
y an</w>
un conventional</w>
repres sion</w>
巴 尔
pop uli
fam ous</w>
处 在
ar i
res sed</w>
动 力
反 复
课 程
outr ight</w>
多 个
monopol y</w>
me tr
加剧 了
难民 </w>
最终 </w>
当 年
fal se</w>
extra ordinary</w>
错误 的</w>
c e-
draw n</w>
本 月
四 个
war ds</w>
ga ther
认识到 </w>
的 挑战</w>
武 力
challeng ing</w>
以 后
meaning ful</w>
非洲 的
文 明
义 务</w>
法 案</w>
侵 略
anni versary</w>
在200 8年
妥协 </w>
福 利</w>
最 好
授 予
direc tor</w>
in ely</w>
公 约</w>
im pressive</w>
we igh
建 造
par all
fam ili
解 体
min ds</w>
有关 的
con vic
li st
第三 个
trigg er</w>
担 心</w>
busin ess
c ab
加 快
以 确保
样 的
free- trade</w>
in side</w>
th ro
le ts</w>
可能 性
200 6年
在这 方面
gr y</w>
就 越
clim ate-
no tion</w>
ti ans</w>
的 地区
美国 对
real- estate</w>
secon d
的 主
character ized</w>
protec ted</w>
second ary</w>
rec over</w>
穆 尔西
点 的
理 应
enjo y</w>
an ci
imper ial</w>
defin e</w>
该 计划
严格 的
improv ements</w>
great ly</w>
和 西班牙
tain ed</w>
率 的
西 岸
压 制
ar di
abb as</w>
maintain ed</w>
re form
histor ically</w>
justi fy</w>
的 基本
就 需要
s at
更 重要的是</w>
系统 性
prop ag
保险 </w>
里 根
运动 的
狂 热
depos its</w>
recogn izing</w>
富 人
里 斯
ol der</w>
acceler ate</w>
拖 累
p ip
cell s</w>
极大 地
群 体</w>
缩 </w>
won der</w>
re member</w>
sou theast</w>
ran ean</w>
iter ranean</w>
cre ative</w>
绝 不是
tw it
tt on</w>
ch r
populi sts</w>
计 </w>
t ty</w>
年 度
派 的
med iterranean</w>
源 自
尔 街
比 以往
occup ied</w>
st ated</w>
assum ed</w>
意大 利</w>
商品 和
流离 失
万 亿
trans formed</w>
bro thers</w>
2 9</w>
会 被
的 无
collap sed</w>
us al
respon ded</w>
的 贸易
进 而
这 对
如果 不
科学 </w>
程度 的
jer usal
negoti ated</w>
198 0s</w>
勒 </w>
ne o-
法 塔赫
ho ods</w>
mor si</w>
与 中国
伯 特</w>
间 接
到 底
上涨 </w>
混乱 </w>
网 站
华 尔街
赐 </w>
spir it</w>
挪 威
他 对
c ast</w>
响 应
2 4
z e
201 7</w>
保 健
考虑 </w>
争 论</w>
ar re
le t
查 韦
东 京
cr ip
俄罗斯 和
exist ence</w>
gen o
k ill</w>
借 助
兴趣 </w>
orth odo
批评 </w>
adap t</w>
cau ght</w>
jerusal em</w>
tar ian</w>
在政治 上
实施 了
ic -
manip ulation</w>
在 这种
前 提
在 今年
an e</w>
被认为 是
车 </w>
ca th
意义 的
发 明
percep tion</w>
re ver
el i
升值 </w>
增加 的
杀 </w>
页 岩
太 多
al be
比方 说
partn erships</w>
sligh tly</w>
排 名
proto col
弥 补
harv ard</w>
称之 为</w>
北 美
200 4年
积极 的
labor -
gr and</w>
thre e-
埃及 </w>
sh ang
attemp ting</w>
pati ent</w>
公民 </w>
protection ism</w>
bur ma</w>
果 断
f iv
eng l
domin ance</w>
前 总统
sit es</w>
引 人
首 都
工 人</w>
预算 </w>
ber nan
的 权利</w>
关 心
hor r
enh ancing</w>
代 理
tr ap</w>
最 重要的是</w>
longer- term</w>
调 </w>
核 电
费 用
k i</w>
身 上
ministr y</w>
的一 次
is es</w>
3 月
shif ts</w>
co her
布莱 尔
r at
它 在
ch ains</w>
believ es</w>
旅 游
地 震
bro ken</w>
im posing</w>
做 出的
enfor cement</w>
单 </w>
之 路
sym pt
变革 </w>
and e</w>
确实 </w>
ro y
令人 惊
activ ists</w>
绝 大部分
employ ers</w>
emph asis</w>
ld n</w>
ky o</w>
从 中
tal ent</w>
对 立
计算 机
节 </w>
美 军
免 费
漏 洞
comb at</w>
差距 </w>
穆斯林 兄弟
n ity</w>
的可能 性</w>
roo ted</w>
mis sing</w>
h ill
下 一
和 公共
法国 总统
之 以
合作 的
是 如此</w>
fuel ing</w>
缓慢 </w>
的 人们
和 高
comm it</w>
列 </w>
favor able</w>
peop les</w>
s n
三 十年
indic ators</w>
obstac les</w>
天 主教
soci alist</w>
之 急
分裂 </w>
通过 </w>
ignor ed</w>
fem ale</w>
开支 </w>
b acking</w>
急 需
人 所
米 尔
阿拉伯 世界
让 美国
preser ve</w>
合法 性
大 家
add afi</w>
b en</w>
coordin ated</w>
poor er</w>
poin ting</w>
伟 大的
inter ested</w>
大 使
改变 了
pl ays</w>
on to</w>
su ffici
b o</w>
as yl
众 议院
清楚 </w>
v ement</w>
su m</w>
反 恐
work force</w>
un employed</w>
不够 </w>
8 月
的 任务</w>
历史 的
invol vement</w>
pre p
区 别
aff ir
宪 法</w>
婴 儿
和 环境
民 间
fran k
哪 个
所 赐</w>
no ted</w>
to kyo</w>
pro secu
家 们
也 被
有 机会
pol ar</w>
op pose</w>
灭 绝
ti l
赞 成
而 美国
malay sia</w>
发 </w>
狭 隘
利润 </w>
采取 的
压 迫
三分 之二
中东 地区
的重要 性</w>
意 见</w>
基础设施 投资
experi encing</w>
选 </w>
沟 通
势 力</w>
近 </w>
contr act</w>
persist ent</w>
生 育
ic t</w>
threat ens</w>
几 周
trans atlantic</w>
vehic les</w>
go og
面 积
frag m
cr ash</w>
ins ist</w>
命运 </w>
削弱 了
的 同时</w>
kur dish</w>
righ tly</w>
免 疫
shang hai</w>
ch ain</w>
bernan ke</w>
埃博 拉
acad em
c li
iti ons</w>
米 </w>
ye ar-
石油 价格
bal ance-
美国总统 奥巴马
剧 烈
威 尔
s cre
但 这种
培 养
欧洲 领导人
determin ation</w>
低 碳
pres ented</w>
avo iding</w>
将 导致
re agan</w>
病 人
意 的
2 ,
很 好的
face book</w>
不 在
显而易 见的
&apos ;</w>
sen sible</w>
ber k
isol ation</w>
和 国家
爆发 </w>
将 对
fos sil
au </w>
on ary</w>
fiv e-
看 看
fi elds</w>
n er
一个 国家
dictator ship</w>
工 党
破产 </w>
发 出
信任 </w>
动 作
数 量</w>
targe ting</w>
foll ow
sensi tive</w>
trag edy</w>
lo an</w>
respon ding</w>
ine j
技能 </w>
信 号</w>
财政 刺激
中 小
叙利亚 的
事 务</w>
id able</w>
加剧 </w>
再 加上
ken ne
icit ly</w>
转变 为
要 在
our selves</w>
边 </w>
pl um
将 被
同 事
支 出的
par al
difficul ties</w>
200 3年
以 南
ir o</w>
mat ure</w>
predic ted</w>
ac tor</w>
millenni um</w>
prov isions</w>
忘 记
迈 向
or b
roo ts</w>
有 什么
ch á
民众 </w>
废 除
sa har
达 尔
衡 量</w>
药 </w>
gu ided</w>
内 贾
作 物
serv ing</w>
原 子
时 任
ong -
mortg ages</w>
un le
每 个人
财政 部
a ise</w>
家庭 </w>
非洲 </w>
这 两
其中 包括
一些 </w>
all -
res ist</w>
ff ers</w>
百分 点</w>
sex </w>
专 门
lin ks</w>
199 8</w>
enter ed</w>
did n</w>
pic ture</w>
sk y</w>
有 必要
但 美国
di v
配 置
其他 国家的
三分 之一
extrem ism</w>
y en</w>
天 的
en -
v it
称 </w>
清 算
modern ization</w>
care ful</w>
gr anted</w>
奥 运
per forming</w>
类似 于
3 0年代
d na</w>
7 年</w>
潜 力
多 大
pol ar
实施 的
阿拉伯 之春
influ ential</w>
之际 </w>
import antly</w>
希 特
收入 和
resor t</w>
ti er</w>
更 高</w>
传统 </w>
在 没有
con sci
伊朗 和
invol ving</w>
compel ling</w>
大 胆
re tain</w>
9 年</w>
prolong ed</w>
形 象
务 之急
波 动</w>
achiev ement</w>
只 占
inter -
项目 的
世纪 </w>
im m
州 </w>
清楚 地
happ iness</w>
eful ly</w>
b a
别 无
c ateg
co de</w>
奥 地
fe a
包容 性
父 母
c c</w>
恶 性
on er</w>
伙伴 </w>
man if
ma d</w>
源 </w>
和 新
t ens</w>
出 来的
j ames</w>
而 论</w>
inej ad</w>
提 名
constr ained</w>
i os</w>
in deb
理 论</w>
解释 了
reduc tions</w>
这 在
因 而
街 头
创 建
角度 看</w>
条 款</w>
min ded</w>
invol ve</w>
comple x
albe it</w>
发 射
ex pression</w>
这 条
s lower</w>
we b</w>
攻 击</w>
回 应
in formal</w>
阿尔 及
显而易 见
深 入
1 5年
最 新的
毕 业
urg ently</w>
all s</w>
spur </w>
li abilities</w>
仔 细
竭 尽
高 企
analy sts</w>
anim als</w>
制 约
tor ies</w>
收 集
doctr ine</w>
num erous</w>
奥 朗
僵 局
从 这个
trans -
q addafi</w>
nar row
寿 命
arbit r
统一 的
阿拉伯 国家
l us
教 旨
质疑 </w>
看 法</w>
撒 哈拉
未 必
尊 严
4 月
极 有可能
prof ess
当 务之急
9 0
s en</w>
滥 用
prep are</w>
欢迎 </w>
pro minent</w>
sever ely</w>
mar ri
islam ists</w>
open ly</w>
的 计划
报 道</w>
今 年的
wr ite</w>
在 与
hit ler</w>
四 年
enem y</w>
会 带来
prov o
port fol
hill ary</w>
low- income</w>
open ness</w>
可 行的
起 作用</w>
mad rid</w>
cur e</w>
决 议
以 上的
还 不
spec tac
模式 的
查韦 斯
保 罗</w>
me g
chil d
chá vez</w>
他们 将
单 位
keynes ian</w>
anti bio
就 不会
的 增长</w>
poor ly</w>
so oner</w>
volati le</w>
来 讲</w>
伯 克
pharmaceu tical</w>
误 导
fossil -
bin ding</w>
介 入
原 教旨
internation ally</w>
qu ick</w>
在 他
avo ided</w>
re balancing</w>
烟 草
os en</w>
p he</w>
北 朝鲜
并 因此
re cru
中 最
ra v
indic ate</w>
塞尔 维亚
pri or</w>
slow ing</w>
ris en</w>
哪 怕
je op
atis m</w>
x y</w>
轻 易
任何 时候
广 告
代表 </w>
rati on
val ued</w>
dr ag
抵 御
该 国的
ap proved</w>
穆 沙
catastro phe</w>
现 有的
d angers</w>
政策 和
monit oring</w>
ine fficient</w>
变得 更
in sufficient</w>
榜 样</w>
堪 称
interven e</w>
相似 </w>
政治 和
有 望
亿 人
成 年
大规模 的
fe eling</w>
w to</w>
重要 的是
传染 病
全球 经济的
ir able</w>
发达 国家的
设 定
controversi al</w>
ass ess</w>
ev ident</w>
得 </w>
都 应该
s old</w>
ear n</w>
海 湾
储蓄 </w>
vir tu
日本 和
各 国的
源 于
重 振
reluct ant</w>
in i</w>
的 那样
并 为
知识 </w>
似乎 是
vis ible</w>
崩 盘
moun ting</w>
使用 的
种 植
始 于
其 中</w>
充 斥
上 海
pro jected</w>
mis sil
的 外交
下 一个
guarante ed</w>
凝 聚
euro -
acc used</w>
evol ution</w>
速 度</w>
fir m
能 为
in tr
前 往
数 千
tack le</w>
十 九
expor ters</w>
ro ll</w>
cath ol
famili ar</w>
fe atures</w>
d a</w>
围 绕
根本 上
谷 歌
学 者
b ag
移民 的
北 方
bash ar</w>
卡 塔
resid ents</w>
om ed</w>
可能 在
ac knowledge</w>
t ations</w>
对 话</w>
00 万
holl ande</w>
道 理</w>
vulner ability</w>
afgh an</w>
不确定 性</w>
抱 怨
ti ble</w>
su peri
标志 着
goog le</w>
迎 来
失业 </w>
re moved</w>
ra f</w>
将 让
发 言
fulf ill</w>
所 产生的
的 计划</w>
举措 </w>
reconc iliation</w>
征 收
大 力
强 迫
finan ces</w>
高 收入
ep is
hy po
对 手</w>
资产 价格
一体 化的
p ill
oil -
ra in</w>
总 量
治疗 </w>
无 数
有 过
found ations</w>
nati on-
海 军
亿 欧元</w>
r iv
l uc
2 6
h ot
de terr
主 权</w>
局 势</w>
in ability</w>
无论 如何</w>
诸 如
sahar an</w>
im ply</w>
他们 认为
assum ption</w>
消 耗
ym p
激 发
一 小
al- assad</w>
耐 药
f ish</w>
mul tin
1 -
影响 力的
全世界 的
可以 肯定
而言 之</w>
den om
觉 </w>
哈 尼
sub- saharan</w>
y e</w>
del eg
引发 的
少 的
legisl ative</w>
sp an</w>
ex ists</w>
是 通过
父 亲
low- carbon</w>
就 无法
dro pped</w>
ti se</w>
希腊 的
under way</w>
en larg
切 实
汇 率</w>
内贾 德
流动 性</w>
destro yed</w>
领导 </w>
捐 助
rom ney</w>
克 斯坦
scot land</w>
英国 和
2 8
2 .5</w>
e bol
修 订
相关 </w>
循环 </w>
197 9</w>
20 50</w>
i ka</w>
了一 项
cou ple</w>
orig in
下 来
和 不
亡 </w>
p en</w>
t sun
安全 和
议 定
竞争 力的
金融 稳定
迹 </w>
尼 克
ear th
组成 部分</w>
商品 </w>
碳 排放
lu x
exp ansi
可以 让
k ill
r anging</w>
可靠 的
这个 问题</w>
探 讨
逮 捕
prin t</w>
经济增长 的
labor -market</w>
ele y</w>
已 有
del ay</w>
和平 的
u de</w>
as king</w>
r ival</w>
vir us</w>
他 所
重组 </w>
const ant</w>
requ iring</w>
corpor ation</w>
各 大
供应 链
grad ual</w>
财政 赤字
l enders</w>
埃 塞
平 心
wat ch</w>
berk eley</w>
expl ained</w>
保守 派
f res
r am
199 1</w>
repe ated</w>
6 年</w>
既 然
i op
这种 情况
灾难 性
ther ap
裂 </w>
epis o
退 </w>
pol ish</w>
完成 </w>
com modi
sud den</w>
痛苦 </w>
详 细
t own</w>
regul ated</w>
stabil ize</w>
起 到了
ar m</w>
糟糕 </w>
水 资源
批评 者
traditi onally</w>
理 念</w>
选 票
p ost</w>
受害 者
ord erly</w>
韩 国</w>
jin ping</w>
bl u
f ounded</w>
struc k</w>
o ts</w>
吧 </w>
aband oned</w>
craf t</w>
expendit ure</w>
vacc ine</w>
sovere ign-
n c
自由 和
ol ymp
catastro ph
同 盟
marg in
har mon
conver gence</w>
arab s</w>
减少 了
motiv ated</w>
contribu ting</w>
即便 是
fore igners</w>
lab our</w>
类 </w>
ur </w>
justi fied</w>
货币 政策</w>
accoun table</w>
pre vention</w>
不 容
根 深
nineteen th</w>
den mark</w>
shad ow</w>
二氧化碳 排放
i pped</w>
sym bol
树 立
梦 想
c ell</w>
价值 观</w>
大 国</w>
法 的
内部 的
se in</w>
er n
公共 部门
se ats</w>
h our</w>
在 经历了
qu ie
f ill</w>
pan el</w>
瘫 痪
func tional</w>
结 盟
律 师
有些 人
compar able</w>
g ames</w>
compe ting</w>
民主 和
泽 东
失败 的
se g
症 </w>
judic ial</w>
gener ous</w>
dr i
back ground</w>
neu tr
lo ve</w>
数 百
阿尔及 利亚
protocol </w>
自然 资源
固 的
干 扰
re p
t esting</w>
no where</w>
穆沙 拉夫
bom b</w>
rele ase</w>
ex port
sign al</w>
埃塞 俄
di vision</w>
anx iety</w>
身 为
tigh tening</w>
chr ist
动 用
尼亚 </w>
equ ili
存在 于
邪 恶
走 </w>
sit u
将 </w>
不 难
b and</w>
desper ate</w>
fo ster</w>
毛 泽东
equili br
电 话
商 界
将 来
工 人的
通 往
的 技术
指 挥
friend ly</w>
环 保
scho ol
早 些
1 50
a vi
潜在 的
平心 而论</w>
har d-
see ing</w>
的 承诺</w>
埃塞俄 比亚
he igh
d ys
摩 洛
尤其 是在
更 有可能
wi f
accur ate</w>
stal in</w>
ex pos
acc ession</w>
mi x</w>
绝 望
ail s</w>
世界 各国
驱 逐
接受 的
扩 展
双 重
不久 前
西方 国家
能够 在
接 着
的问题 是
法 规
却 没有
邀 请
世纪 的
公司 和
dis astr
之一 是
erup ted</w>
restor ing</w>
恰恰 相反</w>
本身 </w>
y el
engl ish</w>
colle ge</w>
德国 总理
st one</w>
mus har
位 置</w>
absolu te</w>
ebol a</w>
awar eness</w>
ph one</w>
ah mad
带 着
途 径</w>
的 做法
和 技术
缓 和
f it</w>
犹 豫
d og
trad able</w>
识 别
击 败
cho os
经济学 </w>
却 在
保守 党
石 </w>
受 过
根本 性
与 之
us h
长期 以来
接受 了
可以 为
con i</w>
crim in
any where</w>
伙伴 关系
sk ill</w>
dilem ma</w>
de valuation</w>
伦 理
mitig ate</w>
r are</w>
依赖 </w>
exper tise</w>
的世界 </w>
乐 观</w>
manu el</w>
os ev
elector ate</w>
会议 上
反 抗
作为 </w>
commun ications</w>
南 海
us al</w>
短期 内
pursu it</w>
愚 蠢
lau re
regul ar</w>
draw ing</w>
st o
ber g</w>
公平 </w>
梅 内
natur ally</w>
ab ol
re mo
adop ting</w>
纯 粹
入 了
在 我
sh ou
re ject</w>
债券 的
临 床
2 5年
mo ther</w>
aspir ations</w>
nic ol
举 动
hol der</w>
转 而
免 受
伊拉克 和
revers ed</w>
au di
ric hard</w>
i b</w>
二十 一
back l
名 字
mushar raf</w>
投资 者</w>
这 不是
服 </w>
型 </w>
tob acc
tobacc o</w>
enh anced</w>
see ks</w>
收 购
is tics</w>
6 .
根深 蒂
制 衡
2 -
den ed</w>
海 啸
子 女
un ification</w>
appe ar
安倍 晋
的 能力
奥 </w>
去 年</w>
campa igns</w>
y ang</w>
challeng ed</w>
亿 </w>
对 他们
prev ented</w>
数 以
世界大 战
elimin ating</w>
宣 扬
in no
plac ement</w>
sav ed</w>
ir s</w>
这 份
不满 </w>
团结 </w>
tari ffs</w>
总 需求
5 年的
port ation</w>
pro mp
argu ing</w>
危机 爆发
资本 流
c el
中东 的
se y</w>
达 </w>
下降 了
国内 的
单 方面
consid ering</w>
eag er</w>
t ance</w>
印 象
创 新的
定 价
恐惧 </w>
settl ements</w>
安倍晋 三
统治 者
mach ines</w>
做 了
k ru
st ood</w>
u d</w>
geo graph
ec h
el ect</w>
electr ic</w>
的 法律
体 育
辩 护
st ers</w>
house -
de structive</w>
官 </w>
质 量</w>
岁 </w>
的一 大
mexic an</w>
in et</w>
本 来
采取 行动
pric ing</w>
区 分
co hes
亚 太
选 票</w>
着 眼
金融 体系
呈 现
机构 和
cam p</w>
提 到
ac tively</w>
死 刑
的 东西</w>
收 支
earth qu
peri ods</w>
e ton</w>
an ge</w>
关键 </w>
但 中国
高 管
鲁 哈尼
dar k</w>
坚 决
fac ility</w>
conserv atives</w>
judg ment</w>
中东 </w>
it ors</w>
plat forms</w>
mu ch-
stud ent</w>
tox ic</w>
g ates</w>
马来 西亚
execu tives</w>
popul arity</w>
辛 格
哈 梅内
排 斥
契 约
效 仿
proced ures</w>
ber lus
赛 </w>
intellec tu
un it</w>
q at
expos ure</w>
re alized</w>
attitu des</w>
亦 然</w>
分配 </w>
chan ces</w>
hous es</w>
机器 人
judg es</w>
conv in
intro duce</w>
候选 人</w>
乌克兰 的
autonom y</w>
pl ur
fl aw
对 付
suffici ently</w>
就业 和
fossil- fuel</w>
长 久
f light</w>
ha u
危机 中
politici an</w>
多 年的
mur der</w>
路 线
mac ron</w>
充满 了
ra y</w>
伟 大
显而易 见</w>
息 </w>
网 </w>
che aper</w>
生产 力
贝 卢
qu est</w>
princ eton</w>
徒 </w>
ric her</w>
采 购
日程 </w>
首先 是
身 上</w>
cab inet</w>
al ong
fres h</w>
ke ts</w>
要素 </w>
收 紧
也 要
不确定 性
奥巴马 总统
乌克兰 </w>
z es</w>
长 时间
fat ah</w>
along side</w>
何 时
geno cide</w>
手 中</w>
极端 主义
在 整个
只不过 是
连 接
anci ent</w>
æ </w>
green span</w>
dis proportion
cy pr
de grad
岛 </w>
serb ia</w>
俱 乐
厌 恶
削弱 </w>
同 性
更糟糕 的是</w>
普 林斯
5 .
ad ding</w>
in ing</w>
待 遇
他 将
可怕 的
产品 的
它们 </w>
f an
l end</w>
就 有
航 空
i ary</w>
n af
委员会 的
cypr us</w>
re ci
20世纪 30年代
他 是
fe ed</w>
infl ationary</w>
摩洛 哥
ad just</w>
h at
ast ing</w>
不太 可能
玻 利
破坏 性
普 及
美国 国会
希特 勒
al ex
probl ematic</w>
你 们
h man</w>
eth iop
贝卢 斯科
al ger
愿 景
的一 份
东 南亚
浓 缩
为 首
k ham
活 力</w>
减 免
sec tarian</w>
挑战 的
深 化
的 欧盟
升 高
房 屋
ch air</w>
persu ade</w>
即将到 来的
公共 卫生
对 经济
消 失
伤 </w>
if f</w>
无 视
下 来的
政 坛
int ense</w>
写 道</w>
c eas
al ties</w>
pl us</w>
出 人
arrang ement</w>
hal t</w>
berlus coni</w>
案 例
eval u
而 中国
秘书 长
domin ate</w>
concentr ated</w>
不 堪
commun ication</w>
adop tion</w>
手 中
con vers
美 </w>
到 201
al a</w>
mem ory</w>
世界各 地
h a</w>
re tail</w>
对 这些
信 誉
一些 国家
加 利
criter ia</w>
ene i</w>
v il
h ome
末 </w>
ig u
hor iz
pen sions</w>
confron ting</w>
全民 公
危 害
欧盟 和
u ght</w>
弗 里
都 不会
消息 </w>
明确 </w>
无 限
pro jec
受害 者</w>
当时 的
健康 的
这一 观点
主 </w>
kham enei</w>
b in</w>
奥朗 德
sac rif
演 </w>
t b</w>
恩 </w>
本 世纪
qu es</w>
所 面临
的 决定
ch ose</w>
热 情
pen s
认识 </w>
大 脑
缩 减
announ cement</w>
遵 循
忠 诚
小 时
sym b
mort ality</w>
ass a
加 深
indi rec
alli ances</w>
更 广
修 复
ac le</w>
分析 </w>
西 斯
human- rights</w>
sh el
nor way</w>
维 奇
投资 者的
al istic</w>
arch y</w>
di a</w>
飞 机
性 地
舞 台
生 涯
全 体
这些 措施
世界 贸易
货币 政策的
insp ired</w>
king -
spe aking</w>
wit n
d ated</w>
就 没有
深 远
en force</w>
compu ters</w>
m end
著名 的
意 志
也许 会
respec tively</w>
传 递
吉 尔
divis ions</w>
是 什么
折 磨
boo k
ous ness</w>
pris ing</w>
而 又
规则 的
建立 起
等 等</w>
0年 </w>
re cip
backl ash</w>
signific ance</w>
体 制</w>
territ ories</w>
optim istic</w>
盟 国
克 鲁
fair ly</w>
fac to</w>
eng ine</w>
最 贫困
deep ening</w>
th row</w>
sup ports</w>
办法 是
军队 </w>
l ay</w>
随之 而
begin s</w>
forec ast</w>
ce o</w>
gre e
在 了
contem porary</w>
其中 一个
fe ature</w>
罕 默
而 这一
失 望</w>
政府 必须
保证 </w>
re sum
flaw ed</w>
在 去年
太 过
人民 </w>
ar ise</w>
沉 默
gu ard</w>
的 自
ov </w>
equilibr ium</w>
救 援
propag anda</w>
这 与
commodi ties</w>
迹 象</w>
设 置
占 gdp的
的 成本
ear ned</w>
assum ing</w>
res ent
cal -
super vision</w>
敌 人</w>
罗 伯特</w>
解 读
不平等 </w>
ahmad inejad</w>
manufac tur
的 公司
此 后
的 有
报 复
古 老
green house-
诉 讼
在于 </w>
fried man</w>
最高 法院
的 地方</w>
kur ds</w>
会 谈
disast ers</w>
核 能
罪 </w>
gen es</w>
th at
不 存在
从 根本上
super vis
瓦 </w>
生产 </w>
wr iting</w>
情 景
discus s</w>
in formed</w>
欧洲 大陆
cr ats</w>
之 前的
欧洲 经济
中获 益</w>
ky oto</w>
软 件
reput ation</w>
布鲁 塞尔
lik eli
un willing</w>
th om
建设 </w>
no te</w>
ev il</w>
所 在</w>
conclu de</w>
tre ati
北 非
英 雄
dis cre
存 </w>
class es</w>
fundament als</w>
over seas</w>
远 比
exten sive</w>
两 党
ó n</w>
syst em
变得 越来越
根本 没有
advis ers</w>
p il
民 调
acceler ating</w>
小 平
achiev ements</w>
每 一
cen ter-
看 到了
正确 </w>
s ent
st em
富裕 国家
财 产
chann els</w>
上 的</w>
与 伊朗
deli very</w>
就 算
ab d
准 则
归 咎
的 选择</w>
高 等
的前 提
组 建
果 真
mar io</w>
局 限
8 5</w>
pur poses</w>
希拉 里</w>
分 布
谈 论
discus sed</w>
gi ant</w>
愤怒 </w>
l or
pe tro
反 思
加 州
some how</w>
尼克 松
in cur
li vel
oc curr
h ence</w>
基金 会
o is</w>
professi on
违 约</w>
b ac
f ish
选民 </w>
for ests</w>
a sive</w>
的经济 体
benefic ial</w>
的 价格
企 图
thre sh
t y-
哪 里
trans- pacific</w>
ati vely</w>
t ons</w>
clos ing</w>
费 </w>
her o
detail s</w>
落 实
提 前
的 必要
邓 小平
den g</w>
green house</w>
的新 兴
负 </w>
费 用</w>
新 一轮
选举 的
干 旱
ow ns</w>
巴基斯坦 </w>
肯 尼
考验 </w>
支 柱
k -
颇 为
社交 媒体
ver sus</w>
jud ge</w>
ak ed</w>
livel i
预 料
join ing</w>
深刻 的
el and</w>
疾病 的
再 度
convin ce</w>
手 机
身 </w>
g ü
国 集团
指 望
同 情
fel low</w>
rou te</w>
is n</w>
跨 大西洋
缩 小
por tr
ten sion</w>
比 利
ab und
不 那么
影 </w>
应该 在
至关 重要的
un fair</w>
public- sector</w>
sof tw
collabor ation</w>
greenhouse- gas</w>
远 离
7 年的
disco vered</w>
半 个
本质 上
comp li
职 责
up coming</w>
pan ic</w>
interpre tation</w>
虐 待
integr ate</w>
rel ying</w>
优 惠
队 </w>
东 部
大幅 度
撒哈拉 以南
comfor table</w>
19 50</w>
199 5</w>
rati os</w>
优 秀
bol iv
考 察
是 的</w>
fam ously</w>
的 共同
得 出
co st-
创 立
微 </w>
敌 对
卡 </w>
想 法</w>
bor ne</w>
巴拉克 </w>
pen insul
有 权
的 收入
ha el</w>
d an</w>
wor sen
巨 头
警告 </w>
t in</w>
运 行
番 </w>
s am
dig nity</w>
记录 </w>
哈梅内 伊
marri age</w>
揭 示
g man</w>
充斥 着
极 度
放 任
金 钱
的 和平
con fin
充 当
enter prise</w>
前 进
resol ving</w>
197 0s</w>
post p
teach ers</w>
开 采
de ad
comm and</w>
故 事</w>
股 权
an ing</w>
民粹 主义者
car b
是否 能
circ le</w>
也 更
stri king</w>
difficul ty</w>
fea sible</w>
不 稳定
heal th
掌 控
中国 对
非洲 国家
斯 蒂
sta ke
softw are</w>
阿 卜
ec ture</w>
他 还
sol id</w>
weap on</w>
cont ag
entr en
强 有力的
症 状
hosp it
environ ment
根本 无法
答 案</w>
fran k</w>
银行 业
万 </w>
从 </w>
极 权
produc es</w>
在 阿富汗
过 了
显然 是
el -
思维 </w>
peninsul a</w>
去 杠杆
ox ide</w>
伊拉克 战争
衍 生
del ever
ni xon</w>
挣 扎
脚 </w>
b it</w>
很 大</w>
° </w>
美国和 欧洲
cro ps</w>
不 顾
非 正式
s a</w>
成 绩
re vive</w>
jeop ardi
行业 的
治理 </w>
熟 悉
片 </w>
所 说
un stable</w>
矛盾 </w>
princip al</w>
大 肆
西班牙 和
区 别</w>
安排 </w>
amb igu
catal y
提升 </w>
chann el</w>
coher ent</w>
德国 人
y an
失 灵
恐怖 主义</w>
会 让
现状 </w>
ap ping</w>
expl ains</w>
所作 所
le ver
布 里
pow ered</w>
en try</w>
sim pl
最 多
sh ed</w>
士 </w>
多样 性
石油和 天然气
核 不扩散
dist ant</w>
hy dro
swit zer
小 心
得 多的
k es
integr ity</w>
平衡 的
管 制</w>
就 已经
mel t
ec </w>
for em
fac tion</w>
kru gman</w>
likeli hood</w>
h arm
子 的
法国 人
f ought</w>
foot ball</w>
infl ation-
中 亚
令人 震惊
欧洲 议会
le ague</w>
fi red</w>
英国 退欧
自由 市场
不 住
mar sh
treati es</w>
mic hael</w>
en ses</w>
disastr ous</w>
官员 </w>
dis order</w>
don or</w>
j ur
设施 </w>
为 时
重 申
这些 国家的
京 都
工程 </w>
p iv
br an
en acted</w>
con fu
以 致
的 巨大
ma o</w>
可以 用
森 </w>
suic ide</w>
塞 尔</w>
正 统
联合 国的
银行 家
as ks</w>
改 造
索 马里
侵 蚀
le vi
卢 旺
isol ated</w>
naz i</w>
柏林 </w>
real ities</w>
不 惜
liber ty</w>
ac ute</w>
其 经济
wol f
数 的
de pu
rein forced</w>
归咎 于
trans portation</w>
typ ical</w>
pl un
missil es</w>
dynam ics</w>
ar sen
rein force</w>
it -
oun ced</w>
gr and
很 可能会
el ement</w>
周 </w>
st an</w>
ul ating</w>
置 于
ob served</w>
volum e</w>
目 光
不 知
exce ed</w>
相同 的
目 睹
civil -
tac tics</w>
ig ning</w>
的 国内
逃 离
打 造
consider ations</w>
当 代
比 其他
退 出</w>
其 自身
ap ple</w>
z o</w>
on e
活 力的
suppl y-
mobil ize</w>
ran ks</w>
b le
low ering</w>
福 祉
attemp ted</w>
zer o-
如 同
升级 </w>
便 宜
mass ac
教 皇
时间 里
laure ate</w>
温室气体 排放
3 -
bureaucr acy</w>
mach ine</w>
观察 家
暴 力的
第 五
明 证</w>
的 能源
v e-
o ting</w>
e igh
以 </w>
走 出
巴尔 干
mil iti
qat ar</w>
well being</w>
weak nesses</w>
slow ed</w>
和 就业
政府 对
2 年的
致 </w>
疑 </w>
tal king</w>
等 于
199 2</w>
mone tary-
长 远
tion ally</w>
推 高
金融危机 </w>
st akes</w>
库尔德 人
trans form
198 9年
o tic</w>
那样 的
野 心
扼 杀
威 慑
unil ateral</w>
脆弱 </w>
政 </w>
tel ling</w>
wor ker</w>
to tal
巴沙 尔</w>
may be</w>
re move</w>
石油 </w>
世界上 最
几十年 来
附 加
r w
indi ans</w>
大 有
den ied</w>
升 高</w>
hy per
shif ted</w>
comm ent
俄罗斯 总统
容易 </w>
生产 率</w>
tr ained</w>
这 使得
西方 </w>
je an-
和 他的
或 其他
sd gs</w>
会 使
现实 的
食 物
switzer land</w>
confron ted</w>
或 </w>
rad i
ref use</w>
pragm atic</w>
它们 在
energ y-
新 </w>
有 点
经常 账户
defin ition</w>
b acks</w>
in solv
magn it
促 成
自由 主义
in security</w>
short ages</w>
进 化
aff ecting</w>
是 可以
hon or</w>
重要 性
难 题</w>
marg inal</w>
t ti
平 价
伯 南
保障 </w>
的 重
乱 </w>
leg ally</w>
as si
194 5</w>
不可 或
dem anded</w>
reduc es</w>
privil eg
流 动</w>
式 </w>
e ye</w>
alloc ation</w>
in qu
bil ls</w>
认 知
un ch</w>
的 选举
doub ts</w>
wo ods</w>
空 </w>
st ar</w>
stead ily</w>
sel ection</w>
跨 太平洋
金融 部门
明白 </w>
au sible</w>
住 宅
的 资金
通货膨胀 </w>
开发 银行
犯 </w>
ab </w>
我 认为
的最 高
rejec tion</w>
revolu tions</w>
rec ap
construc tive</w>
转移 </w>
部队 </w>
像 </w>
r ating</w>
understand able</w>
两 国的
l is
mar ks</w>
den y</w>
很 简单</w>
roy al</w>
的 成功
forem ost</w>
ev a</w>
阿卜 杜
的 事情</w>
交 给
中国 人民
id den</w>
学 会
实 力的
不可或 缺
意 外
这 表明
tra vel
1 年的
drag hi</w>
人士 </w>
形 象</w>
伯克 利</w>
衰 落
雄心 勃勃
low er-
使 命
日 内
日 子
贝卢斯科 尼
董事 会
数字 </w>
营养 不良
medic ines</w>
pe ter</w>
. .
除 此
全球 贸易
g aps</w>
的 水平</w>
随 时
ch er
选 战
布雷 顿
cooper ate</w>
unil ater
is ing</w>
定 期
ch osen</w>
govern ment-
精 确
t ested</w>
accor d</w>
雇 员
尽 </w>
英格兰 银行
th en-
1 ,000</w>
regul arly</w>
non- proliferation</w>
美联储 主席
trou bled</w>
的 努力
high- income</w>
转 换
driv er</w>
英国 人
代表 了
f old</w>
accep tance</w>
他们 会
n go
有 理由
6 0年代
eu -
小 布什
抨 击
ref usal</w>
所 需
hop ed</w>
2008 -
基 准
大 气
fi x</w>
发达 国家</w>
架 构
争 议</w>
c yn
形 容
特别 是</w>
全球 性
超 出
g ross</w>
catastroph ic</w>
终结 </w>
anim al</w>
year- old</w>
en ligh
毫不 奇怪</w>
机遇 </w>
t am
动 的
deser ve</w>
ap pointed</w>
bl ow</w>
强 加
的 低
c up</w>
市场 上
i res</w>
子 孙
我们 将
压 </w>
欺 骗
罗斯 福
埔 寨
newsp aper</w>
一 方面
模 仿
s ad
sch ed
as pec
博 弈
证据 表明
席 位</w>
联邦 政府
no body</w>
ap ol
tend ency</w>
hur t</w>
der iv
在 他们
credit or</w>
缓 冲
milit ar
argu ably</w>
m as</w>
加利 福
之 后的
不 知道
citiz en</w>
陷阱 </w>
提 案
要求 的
千年 发展
选择 的
到 达
人员 </w>
萨达 姆
l ag
la h</w>
杂 志
follow ers</w>
接 收
角 </w>
under -
compar ison</w>
柬 埔寨
宝 贵
diplom ats</w>
阿 布
stead y</w>
fran ç
aspec ts</w>
探 索
痛苦 的
for est</w>
shor e</w>
mal e</w>
b id</w>
ul tra-
b ound
知识 产权
遇 到
mah m
ex press</w>
卫 星
jos ep
b at
9 年的
ash ing</w>
国有 企业
anal og
le hman</w>
行 使
josep h</w>
收益 率
享 有
de em
途 </w>
if t</w>
4 -
cy ber
组织 和
neighb or</w>
des irable</w>
的 反应
尤 为
ti on-
举 </w>
亚洲 国家
自 杀
政府 将
def ending</w>
impl icit</w>
生活 水平
experi ences</w>
ag on
辙 </w>
constitu te</w>
comp ati
作用 的
ass ass
t ell
middle- class</w>
bre tton</w>
tsun ami</w>
成 千
种 种
特朗普 </w>
这 并不是
的方式 来
的 行动
de al
s lo
foll ows</w>
修 建
平等 </w>
colon ial</w>
ab uses</w>
归 根
five- year</w>
如果 他们
现在 已经
接 种
he ar</w>
sha ping</w>
fil m</w>
n pt</w>
决 不能
¥ </w>
也 已经
它 所
sid ers</w>
schem es</w>
r iver</w>
进入 了
指 引
hund red</w>
周 年
som alia</w>
offici ally</w>
re construction</w>
杀 戮
fri end</w>
situ ations</w>
周 围
am id</w>
减速 </w>
撤 军
emphasi zed</w>
儿童 </w>
mahm oud</w>
an thro
自 治
但 当
protection ist</w>
ic on</w>
youn ger</w>
轰 炸
summ ers</w>
当 作
j ong-
罗姆 尼
秘 鲁
老 年
per form</w>
组成 </w>
in k</w>
l acking</w>
设 法
星 期
optim ism</w>
experim ent</w>
char ter</w>
judic iary</w>
rece iving</w>
很 重要</w>
格 林斯
一 无
据 说
introduc tion</w>
c ard</w>
g as
ten ds</w>
expl icitly</w>
sen ator</w>
预 见
repor ting</w>
宗 派
consider ation</w>
如果 美国
渐 进
忧 虑</w>
compon ents</w>
est ation</w>
这是 因为
earthqu ake</w>
stra ight
invest or</w>
是 以
人 工
der eg
expl icit</w>
在 对
奥地 利
百 年
ab e
doc um
零 </w>
pol lu
dist ur
壁垒 </w>
ch ic
less ly</w>
w wi
排除 在
的 需求
短缺 </w>
neighbor hood</w>
通 讯
con fir
应该 被
loc ked</w>
sti g
免 于
in equ
tar iff</w>
hos tile</w>
2 月
世 </w>
s cru
而 其
高 出
care er</w>
的 印度
并非 如此</w>
fin ds</w>
t v</w>
p in</w>
局 限于
总统 大选
都 不是
格林斯 潘
ukrain ian</w>
complex ity</w>
布雷顿 森林
份 额</w>
接 着</w>
deli vering</w>
e ze</w>
梦 </w>
ag e-
极 右翼
伦 </w>
遗 憾
en ables</w>
高 效
199 4</w>
v y</w>
上 台
ph ones</w>
hus sein</w>
convinc ing</w>
wa ves</w>
元 素
中 获得
attitu de</w>
停滞 不
expansi onary</w>
gover n</w>
clin ical</w>
li t</w>
0 -
re l</w>
un rest</w>
土 地</w>
克 的
t less</w>
公 债
fin e</w>
寻 常
co ast
set tle</w>
conf ident</w>
库 </w>
关 联
prevail ing</w>
elimin ated</w>
孟加拉 国
公众 对
the tic</w>
区 的
焦 点
阵 线
照 </w>
两 倍</w>
li </w>
富 国
拖 延
declin es</w>
意 思
pre cip
比方 说</w>
信 号
穷 国
这一 趋势
appreci ate</w>
surr ounding</w>
in effective</w>
st un
在 我们
运 营
支 配
artific ial</w>
成千 上
反应 堆
必 不可
ethiop ia</w>
大 体
gu il
s our
最近 在
w ou
但 没有
产生 </w>
gen eva</w>
st ering</w>
抑 郁
secur ing</w>
的 角色</w>
bol ster</w>
ak p</w>
金正 恩
又 一次
wor king-
还 包括
sdr </w>
at om
让 步</w>
他 人
累 积
希望 的
embrac ed</w>
卫 </w>
administr ative</w>
am end
loc ation</w>
那 时
low est</w>
可以 被
he at</w>
v a</w>
第二 </w>
公民 社会
dec ent</w>
ho t</w>
invol ves</w>
以 下</w>
govern ed</w>
主 持
近 乎
in spir
雷 曼
欧盟 国家
l o</w>
逆转 </w>
飓 风
9 5</w>
以及 </w>
critici zed</w>
纪 律
d ire</w>
许 可
hol dings</w>
马克 龙
展 现
英国 脱欧
adjust ments</w>
inc umb
val ley</w>
解 除
k r
依然 是
illu str
给 出
仅 有
emo tional</w>
wor thy</w>
le e</w>
monetary- policy</w>
争 端
触 发
oph ob
们 </w>
轻 松
表示 </w>
下滑 </w>
也 开始
应 付
rev ival</w>
charg ed</w>
refl ecting</w>
在 新
论 文
tour ism</w>
身份 </w>
角度 讲</w>
z a</w>
short age</w>
break through</w>
jur is
g ord
夏 天
gr as
3 年的
z ones</w>
案 件
证 实
ur an
边 际
部 落
史 以来
competi tors</w>
和平 进程
重 启
n el</w>
half- century</w>
时期 的
绑 架
宪 章
di oxide</w>
resist ant</w>
的一 系列
augh ter</w>
it ely</w>
up ward</w>
本 土
较 为
撒 切尔
ir ish</w>
charac ter</w>
紧张 </w>
1 50</w>
叙利亚 和
难 道
巴基斯坦 的
nam ely</w>
sha ped</w>
vic ious</w>
已 不再
fac tory</w>
就 开始
desper ately</w>
recomm end
es is</w>
cen sor
因 </w>
忍 受
g lo
时 机
的 实际
gra ve</w>
我 </w>
前 者
mo thers</w>
准备 好
franc is</w>
让 它们
pul l</w>
urban ization</w>
的 真正
specul ative</w>
利率 的
打 开
来 到
胜 </w>
独裁 者
兰 克
is -
庞 大
中等 收入
强 力
显著 的
land s
thom as</w>
学校 </w>
re turning</w>
fin dings</w>
cam bo
权 衡
惩罚 </w>
全球 化</w>
empha size</w>
新 德里</w>
acqu ire</w>
的 那
melt down</w>
只 需要
西班牙 </w>
200 2年
impl ying</w>
re lies</w>
liqu id</w>
权利 的
选择 了
q e
differ ently</w>
ief s</w>
im ages</w>
产 物</w>
5 5</w>
se as
经济 复苏
far m</w>
n as
挂 钩
若 干
al an</w>
stor m</w>
do d
al together</w>
tr um
ben ch
根源 </w>
以及 在
短 暂
2 2
迪 </w>
twit ter</w>
treat ments</w>
研究 所
将 使
b rown</w>
x ia
巴沙 尔
也 有可能
莫 过于
会 给
f ishing</w>
途 径
pled ge</w>
追 溯
最 高的
状况 的
int entions</w>
provin ce</w>
with draw</w>
contr action</w>
smo o
恶 劣
go d</w>
国内 生产总值
西 藏
器 </w>
sk i</w>
su it</w>
degre es</w>
已 是
initi ated</w>
cr acy</w>
并不 一定
fre ely</w>
ti m</w>
这 可能
parall el</w>
antibio tics</w>
异 常
来 为
l d-
tr ain</w>
就 应该
马 斯</w>
char les</w>
ph o
核 心</w>
concentr ation</w>
terr ible</w>
war r
pl ing</w>
mo od</w>
前 苏联
cro p</w>
密集 型
单 边
在 一些
under take</w>
令人 信
的 企业
st on</w>
买 入
到 来</w>
盖 茨
英国 首相
这 方面的
scor es</w>
新 的</w>
萨科 齐
4 年的
n is</w>
剂 </w>
布 拉
ou l</w>
th- century</w>
straight forward</w>
我们 现在
不 对
他们 是
以 使
威胁 的
向 </w>
而 如果
灾 害
天 气
pled ged</w>
ric e</w>
ta ke
repres entation</w>
不仅 如此</w>
重 复
正 好
或 者</w>
感觉 </w>
族 裔
wor rying</w>
戈 尔
enom ics</w>
金融 业
成 长
铁 路
误 </w>
反对 者
了一 系列
代 替
透明 度
or ous</w>
l ou
b ought</w>
newsp apers</w>
ste el</w>
大 银行
扩 大的
总 结
号 召
recogn izes</w>
­ </w>
chec k</w>
am az
更 好
p tions</w>
- -
份 </w>
改革 和
h edge</w>
药 物</w>
dis pos
的一 半</w>
strong est</w>
lis bon</w>
appear ance</w>
obstac le</w>
更 广泛
世贸 组织
这一 问题</w>
的经济 学家
仍 将
油 </w>
israel i-
enter ing</w>
如此 之
波斯 尼亚
th or
有 趣
地 将
199 0年
6 00
的 战争
无人 机
success es</w>
s ri</w>
并 最终
bi as</w>
4 00</w>
tri p</w>
out break</w>
付 出的
通胀 率
的 形式
女 性</w>
会 晤
诺贝尔 奖
cooper ative</w>
自 豪
商品 价格
protest ers</w>
thresh old</w>
规模 的
f loo
之 不
g- 20
得到 的
dynam ism</w>
五 个
gord on</w>
描 绘
blo c</w>
的 机会
profession als</w>
的 罪
会 造成
的新 闻
l eng
temper atures</w>
glob alized</w>
lo s</w>
教 师
占据 了
裁 决
pi ece</w>
但 现在
里斯 本
so es</w>
资金 的
本 应
tra jec
v ation</w>
阻碍 了
trib al</w>
地 下
secre tary-
克里 米
任何 一个
ne ts</w>
核武器 的
cul tures</w>
实验 室
该 组织
批准 </w>
斯 里
弗里 德
雇 佣
underpin ned</w>
bre aks</w>
退休 金
结核 病
ak h
h en</w>
尔 和
prefer red</w>
同 </w>
6 年的
执 行</w>
恐慌 </w>
公 私
倾向 </w>
hon est</w>
转 折
估 算
公共 债务
los ers</w>
黑 暗
em be
对 那些
同性 恋
起 义
长期 的
州 和
第二 大
inno cent</w>
favor ed</w>
remo te</w>
偏 好
econom ic-
举 办
顽 固
sovereign- debt</w>
norm ally</w>
欧洲央行 的
的信 号</w>
compet ence</w>
inter esting</w>
的 未来
secretary- general</w>
pro of</w>
gener als</w>
务 实
the -
峰 会</w>
土 壤
arre sted</w>
tri ump
frequ ent</w>
忽略 了
事 关
极端 分子
持续 的
二十一 世纪
效 益
g al
措施 的
if ying</w>
奥 尔
穆 罕默
或许 是
multin ational</w>
家 园
investig ation</w>
franç ois</w>
的 事实</w>
ill -
destabil izing</w>
triump h</w>
关注 的
跨 越
助长 了
布鲁 塞尔</w>
minim ize</w>
岁 的
w ood</w>
r ase</w>
和 投资
i anism</w>
辩 论</w>
杀 害
provid ers</w>
orig in</w>
后 续
令人 瞩
不 像
而 不能
全面 的
acknowled ged</w>
冻 结
注 重
身 处
al ive</w>
s log
注 册
最 小
引人 注
techn i
早 </w>
美联储 的
匹 配
一个 新的
wat ers</w>
太 大
qual ified</w>
例 外
维 和
depu ty</w>
e ous</w>
重要 性</w>
迄今 为止
各 成员国
席 卷
和 发展
chur ch</w>
re inv
克 尔</w>
rus h
pr ide</w>
这是 个
defe ated</w>
inter n
capit alist</w>
ir on
动 态
归根 结
破 灭
多年 来</w>
li fied</w>
竭尽 全力
trad e-
assum ptions</w>
及 其他
wid ening</w>
forese eable</w>
支持 者</w>
abs ent</w>
toler ance</w>
juris dic
offic ers</w>
议程 </w>
历史 学家
更 低的
收 回
descr ibe</w>
that cher</w>
左 派
mean time</w>
的 总
但 如今
而 后
infec tious</w>
e ge</w>
挑 衅
accoun ted</w>
会 产生
saf er</w>
7 .
法 西斯
豁 免
u sion</w>
因为 在
经 典
四分 之一
幕 </w>
位 置
之 下
是 一场
让 他
鲜 明
​ </w>
un ified</w>
伴 随
弱 点</w>
am in</w>
他 说</w>
ron ald</w>
accord ingly</w>
ad ults</w>
测试 </w>
un expected</w>
成员 资格
end uring</w>
程 </w>
tem por
anticip ated</w>
am bas
asyl um</w>
camp s</w>
prison ers</w>
托 </w>
el t</w>
斯里 兰
着眼 于
st uck</w>
imp lied</w>
sol ved</w>
取得 成功</w>
advoc ate</w>
否则 </w>
lo oming</w>
ar ray</w>
我们 不能
enjo yed</w>
包括 了
涨 </w>
和 教育
恢复 </w>
墨西哥 </w>
har sh</w>
int ention</w>
parti al</w>
han i</w>
cohes ion</w>
100 0
德 斯
explo it</w>
的人 均
无 从
soci ally</w>
en ever</w>
多年 来
r o</w>
切 地
引 用
气 温
家庭 的
高 层
d na
mu tually</w>
这些 政策
所 提出的
牌 </w>
之 争
fl uc
会议 上</w>
- and-
condi tional</w>
经济体 的
野 蛮
和平 与
stabil izing</w>
liveli hoods</w>
前 总理
win ners</w>
li ft</w>
忧 虑
份 子
marg in</w>
警 惕
z i</w>
wh enever</w>
恐 怕
此 举
wat er
deem ed</w>
并且 在
有 害
环境 下</w>
多数 </w>
hur ric
的大 量
宣 言
appro xim
稳 步
外交 官
成立 </w>
步骤 </w>
过 的
着 手
at ro
采取 措施
卢旺 达
aff ects</w>
essi vely</w>
trans l
筹 集
不 振
negoti ation</w>
law yers</w>
priv atization</w>
extrem ist</w>
barg aining</w>
2 9
国家 主席
induc ed</w>
渠 道</w>
re build</w>
g un
liber ation</w>
play er</w>
来 解决
amb ition</w>
hosp ital</w>
predecess or</w>
restor ed</w>
ep h
mar tin</w>
indic ates</w>
mor occ
占 了
巴 布
所 周
最 严重的
absor b</w>
意义 上
和 宗教
in tim
央行 行长
中国和 印度
forec asts</w>
chec ks</w>
人 物</w>
avo s</w>
ra il
co vered</w>
达成 的
for -
ak er</w>
部长 </w>
这 需要
contag ion</w>
197 9年
cap tured</w>
ce iling</w>
rou hani</w>
dou bled</w>
fulf illing</w>
在 20
point ment</w>
细 节
inter medi
不 止
百 上
nicol as</w>
stabil ization</w>
失 望
有 意
贸易 协定
19 世纪
北京 </w>
bel g
承诺 的
th ly</w>
补 助
i es
面 向
英国 退出
sand ers</w>
alleg ed</w>
回 忆
精 力
premi er</w>
imm ense</w>
决 心</w>
称之 为
3 8</w>
resili ent</w>
易 事</w>
宣布 </w>
不可避免 地
os is</w>
基因 组
他们 可以
f it
选民 的
rich est</w>
ali en
欧元区 国家
enlarg ement</w>
日本 人
尖 锐
其 结果
公民 的
经济 危机
f ounding</w>
肥 胖
异 </w>
再 分配
exacerb ated</w>
供给 </w>
post- war</w>
engine ers</w>
fluc tu
家 的
燃 烧
要 让
其实 是
银行 系统
agg ing</w>
最 具
时间 内
lands cape</w>
民 选
h an</w>
这 对于
emb ar
将 于
阴 谋
来源 于
d avos</w>
eth ics</w>
inv o
有 一些
d or
conc essions</w>
海 岸
phys ic
vir tual</w>
3 6</w>
普林斯 顿</w>
ter ly</w>
spec ulation</w>
dec re
推 移
rat ings</w>
政策制定 者
强调 </w>
osev elt</w>
ro osevelt</w>
接近 于
t ony</w>
e e</w>
ough ts</w>
mun ic
近年 来
eng aging</w>
同意 </w>
在201 5年
尊 重</w>
众 所周
重 视
deplo y
混 合
com plac
adv anc
for get</w>
事件 的
好 事</w>
har t</w>
剩 余
tic ism</w>
record ed</w>
相比 之下</w>
austr ia</w>
疯 狂
connec tion</w>
久 的
所 做的
层 面</w>
州 的
演 变为
温和 的
永远 不会
se es</w>
连 任
skep tics</w>
par ity</w>
能 带来
其他 国家</w>
代 </w>
se ize</w>
att end</w>
指 向
illu sion</w>
工 </w>
记 住
temper ature</w>
it ate</w>
bi ology</w>
dis cour
人类 的
在 欧盟
tra um
借 口</w>
的支持 者
林 </w>
税 的
predecess ors</w>
种族 灭绝
tain ing</w>
量化宽松 </w>
exist ential</w>
立 法</w>
找 不到
一 道
s ite</w>
hospit als</w>
r ival
麻烦 </w>
伊斯兰 国</w>
bl amed</w>
同时 又
选 项</w>
凭 借
勇 敢
kil ome
3 3</w>
的 效果</w>
克鲁 格
棘 手
so ared</w>
专 家</w>
资本 市场
bl ind</w>
没 什么
事 态
pers ist</w>
vi de
契 约</w>
塑 造
体 验
这 两种
ir relevant</w>
方法 是
计算 </w>
high er-
appe aling</w>
bio diversity</w>
ill ness</w>
记 </w>
read ing</w>
敌 人
t ough
子孙 后代
的一 部分
cz ech</w>
ul ed</w>
口 号
推 出
barg ain</w>
模型 </w>
传播 </w>
2008年 金融危机
多 哈
基 </w>
pes sim
组 合</w>
成 百上
游 行
国家 庭
accum ulation</w>
prefer ences</w>
无 辜
提供 了一个
为 基础的
o x</w>
很 高</w>
要 </w>
收 缩
per v
mix ed</w>
p ound</w>
诞 生
利 的
dimin ished</w>
gen e</w>
已 开始
asi a-
内 在
也 对
从 前
el led</w>
func tions</w>
前 沿
小 型
主席 </w>
受 损
范 畴
城市 的
distribu ted</w>
shin zo</w>
欢迎 的
class ic</w>
不断 地
预 示
达 沃
se t-
mc kin
他们 必须
兴 奋
vis ited</w>
carb on-
革命 的
在 欧洲</w>
i oned</w>
dis pens
dis man
citiz en
industri alization</w>
但 从
vac u
ple as
defin ing</w>
delever aging</w>
s par
arm ament</w>
yi el
结 合</w>
现在 是
这一 事实
政治 和经济
3 7</w>
稀 缺
compati ble</w>
philosoph y</w>
valu e-
了一 份
wor ries</w>
新 技术
as m</w>
削减 </w>
sur face</w>
但 仍
preced ent</w>
利 用</w>
nav ig
morocc o</w>
3 5
的 东西
bi ological</w>
以色列 人
抱 有
afric ans</w>
parad ox</w>
死 </w>
愿 望
步 伐
庆 祝
贸易 的
不利 于
主权 财富
平 台</w>
per u</w>
苹 果
两 岸
foc uses</w>
- to-
心 脏
旅 行
听 到
defl ationary</w>
ed ness</w>
pa thy</w>
ob tain</w>
ex agger
清 洗
马克 思
分 担
城 </w>
du ty</w>
fa st-
但 对于
and re
掌 权
promo tion</w>
这 导致
分 割
不过 是
acceler ated</w>
医疗 </w>
一 支
价 还
shrin king</w>
萨尔 科
reg ain</w>
应对 </w>
pol io</w>
l am
和 文化
pass ing</w>
杀 伤
min d
highligh ts</w>
马 德里</w>
li ers</w>
愿 景</w>
epid emic</w>
是 无法
de voted</w>
管 道
ca iro</w>
sen ding</w>
留 下
riv als</w>
都 对
白 人
预 言
捷 克
增加 到
会 发生
布 朗
个 百分点</w>
be au
忽视 </w>
con sent</w>
下 一次
机 关
二战 后
avail ability</w>
m ingly</w>
美国 将
sp lit</w>
的 态度</w>
g t</w>
不可能 的</w>
prec ise</w>
cred ited</w>
bro ke</w>
于 是</w>
打 算
per mit</w>
学 的
刺激 </w>
sign als</w>
恐怖 主义的
对 全球
成千上 万
个 </w>
别无 选择</w>
as ym
entren ched</w>
pl ausible</w>
广 场
勒 庞
posi t</w>
附 近
de t
vo ices</w>
an emic</w>
h d
而 当
年 增长率
rw anda</w>
pu m
声 明</w>
减 缓
bureaucr atic</w>
disrup tion</w>
volun tary</w>
与 欧盟
突破 </w>
hab it
有 益
申 科
mar iti
magnit ude</w>
逃 避
peac e
overwhel mingly</w>
指数 </w>
九 十年代
花 了
某 一
沉 重
hi ke</w>
赞 助
resp ected</w>
上 限
是 非常
周期 性
ri ad</w>
推 动</w>
contain ed</w>
und es
隐 藏
代表 的
国 界
rec all</w>
提高 到
re vel
合理 </w>
多 次
隐 含
wif e</w>
ha w
更 能
我们 希望
ir on</w>
预 见的
爱 国
新兴 国家
infl ic
世界 最
抵 制</w>
occurr ing</w>
音 乐
糟糕 的
深 深
否 定
ve to</w>
uran ium</w>
短 短
及 时
or row</w>
tom orrow</w>
下 台</w>
exper t</w>
供应 </w>
commer ce</w>
就 有可能
从而 使
sa ke</w>
总 裁
p ays</w>
被 广泛
ev id
质 量的
出 席
so il</w>
ser ves</w>
死亡 率
star ts</w>
indeb ted</w>
金 本
civil ization</w>
sol ving</w>
sugg esting</w>
起 草
let ter</w>
ar rest</w>
体 现在
de posit</w>
文 化的
可持续 性
sh ut</w>
prepar ing</w>
head lines</w>
提 交
el ings</w>
tre mend
k ings</w>
股 价
conserv ation</w>
表 </w>
外交 政策的
会 成为
highligh ted</w>
fr action</w>
pol l</w>
悬 崖
必 将
民 兵
comple ted</w>
互 动
3 1</w>
塑 料
fair ness</w>
制 止
政府 应该
社会 保障
medi an</w>
de duc
mi red</w>
在 所有
继任 者
在201 0年
ob serv
do ha</w>
一 边
自 主
pr oud</w>
rein forcing</w>
典 型
还 应该
知识 分子
雇 用
pat ent</w>
交 流
buil dings</w>
detail ed</w>
is s</w>
exc ell
势 力的
荒 谬
aggres sion</w>
和 长期
从而 让
的社会 </w>
sec ution</w>
霸 权
通 信
exclu sively</w>
2010年 </w>
v is</w>
政治 上
fla ws</w>
cle ar
穆斯林兄弟 会
登 </w>
所有 人的
life -
ro me</w>
制定 了
demonstr ations</w>
得 更
决定 了
confir med</w>
伙伴 关系</w>
劳动 者
白 </w>
福 </w>
co ast</w>
这一 比例
4 4</w>
秩序 的
切 断
浪 潮
进 了
an gry</w>
从来 没有
就是 一个
民主 制度
distinc t</w>
必要 </w>
oblig ation</w>
deplo yed</w>
viol ations</w>
空气 污染
猜 测
很快 就会
tra ffic
埃及 的
提 出</w>
bur ning</w>
奖 励
ab enomics</w>
意 图
hou </w>
成 </w>
如果 不是
单 独
南 方
a o</w>
流离失 所
假设 </w>
但是 在
增长 了
mil es</w>
但 随着
加入 了
jo hn
同 等
de priv
li on
约旦 河
frustr ation</w>
car rying</w>
捐 赠
就 不
at r
医疗 保健
const antly</w>
sol ely</w>
所作所 为
水 和
ti ed</w>
abd ul
crim ea</w>
regul ate</w>
ol ig
性 质</w>
bud ge
fe ared</w>
不 相同</w>
cos m
实现 的
man eu
hegem ony</w>
ti me
reg ist
揭 露
b ust</w>
t ext</w>
h as
for ever</w>
过去 十年
我们 都
vill age</w>
布什 总统
德拉 吉
ra w</w>
recap it
贸易和 投资
席 位
总理 </w>
重 点</w>
较 低的
d ir
唯一 一个
经济学家 </w>
影响 了
强 国
医 保
trans mission</w>
涵 盖
tempor arily</w>
内 战</w>
sh ale</w>
t um
坎 布里
过 分
adequ ately</w>
po ol</w>
疲软 </w>
equ ipped</w>
pop e</w>
挑战 是
201 8</w>
雷曼 兄弟
数量 的
一 如
中东 和
在 最近的
dra ft</w>
是 全球
始 终
iron ically</w>
根 除
il liberal</w>
民意 调查
与 欧洲
choos ing</w>
降 至
索 </w>
中 欧
入 盟
的不 确定
的 理由</w>
环境 的
在200 9年
持 有的
ad mit</w>
o st
是对 的</w>
逻辑 </w>
l anding</w>
活 力
正 当
fash ion</w>
去 年的
res our
节 约
将 为
戏 剧
im pover
维 尔
diagnos is</w>
观察 </w>
道 而
gol den</w>
loc ated</w>
创新 和
am ing</w>
er adic
一致 的
t elec
创造 就业
19 30
trans fer
stric t</w>
撤 离
co gn
ti de</w>
ep ing</w>
保持 着
dev ices</w>
f s
以 外
作 者
达成 一致</w>
event ual</w>
朝鲜 半岛
就 此
my riad</w>
与 </w>
京都 议定
生命 的
d ying</w>
了 这些
dispens able</w>
自由 派
温 度
方案 的
free- market</w>
基本 的
一 大
虚 假
dis integration</w>
mariti me</w>
se at</w>
un acceptable</w>
itar ianism</w>
prof itable</w>
lob b
ent ails</w>
声音 </w>
coll ateral</w>
讨 价还
expect ancy</w>
祖 国
as set-
焦 虑
的问题 上
现 行
4 8</w>
ty r
prud ential</w>
accep ting</w>
exc essively</w>
ag ents</w>
stru ment</w>
in strument</w>
新 增
profess or</w>
3 2</w>
high- quality</w>
的 总统
chil l</w>
child hood</w>
te ams</w>
资本 外
ter ing</w>
liber als</w>
全民公 决
表面 上
建立 </w>
债 </w>
r age</w>
ker ry</w>
规则 和
high- level</w>
对 欧盟
还 不如
att acked</w>
medi um</w>
在一 起
倡 导
rebel s</w>
涌 入
上升 到
在 内</w>
cap </w>
off ensive</w>
is s
平 面
iti </w>
在 当今
trajec tory</w>
观 念</w>
answ ers</w>
这 正是
face book
影 子
sett led</w>
区域 </w>
deriv atives</w>
不 清
or -
任 理事
俄 国的
经 理
grow s</w>
low- cost</w>
不 想
k us
log ical</w>
强烈 的
spre ading</w>
1. 3</w>
在 危机
类 的
3 4</w>
马 </w>
策 划
饥 荒
在 伊拉克
conn ect</w>
市 </w>
的 数据</w>
form ally</w>
gr iev
和其他 国家
兹 </w>
po c
in ate</w>
建 国
主张 </w>
spir al</w>
起 来的
无 需
五 分
an ia</w>
问题 是</w>
道 理
dre w</w>
蔓延 </w>
把 它
t edness</w>
市场 经济
indic ated</w>
pip eline</w>
where by</w>
炸 弹
一 件
学 科
培训 </w>
层 面的
阿富汗 </w>
无法 获得
prov oc
plum me
金砖 国家
pre- crisis</w>
稳 健
需要 在
初 级
air craft</w>
centr al-
intellectu als</w>
compens ate</w>
采 纳
t asks</w>
斯 洛
恶 化的
com ings</w>
archit ecture</w>
mal aise</w>
执政 的
4 0年
尼 泊
女 性的
disco very</w>
的 行为</w>
派 遣
dem ise</w>
k a
团 体</w>
s m</w>
而 那些
nam ed</w>
el der
fl our
显示 出
m er</w>
enti ties</w>
arr ived</w>
竞争 对手
氛 围
血 腥
dem ic</w>
harm ful</w>
另一 方面
s le
d aw
创 始
糖 尿
就 可能
艾滋病 毒
dis play</w>
all ing</w>
f asc
这 不仅
re mit
firm ly</w>
政府 债券
婚 姻
denom inated</w>
生产 的
la id</w>
到20 30年
short comings</w>
vill ages</w>
sh ot</w>
de dic
因为 他
psych ological</w>
斯 的
tor ture</w>
tol l</w>
是 欧洲
it ability</w>
媒体 </w>
的 危险</w>
世界各 地的
stake holders</w>
东京 </w>
之 势</w>
情 愿
沙 龙
核 武
并 无
既 得
境 </w>
对 这一
领土 </w>
tr um</w>
之 比
c tic</w>
g ases</w>
od ds</w>
是 错误的</w>
大学 </w>
货币 和
over sight</w>
自 信
compli ance</w>
monit or</w>
抵押 贷款
di abe
per formed</w>
tis m</w>
t ched</w>
计 的
alger ia</w>
mist ak
军事 行动
的基础 上
宇 宙
宽 容
加利福 尼亚
enrich ment</w>
美国 剑桥</w>
一 点</w>
ro les</w>
汽车 </w>
jun cker</w>
short fall</w>
有 史以来
教育 程度
回 合
clu b</w>
indi ffer
199 3</w>
en a</w>
temp tation</w>
in dispensable</w>
un ting</w>
pu rely</w>
上个月 </w>
reason ably</w>
激进 的
以 巴
vic tim</w>
中 止
颇 具
naf ta</w>
消费 者</w>
cl assi
bo c</w>
甚至 可能
学习 </w>
long- run</w>
pu zz
津 巴布
insurg ency</w>
表明 了
re distribution</w>
s ach
金融 市场的
不 </w>
dys functional</w>
创造 出
腐败 的
对 冲
for gotten</w>
198 0年
尽 快
l y-
ab u</w>
frame works</w>
中心 的
作 家
ash es</w>
高 估
impe de</w>
增 速
schol ars</w>
普 </w>
游戏 </w>
elder ly</w>
停 火
故 意
g- 8</w>
约 为
新 鲜
app lies</w>
南非 </w>
收 到
cris is-
remark ably</w>
配 额
stem ming</w>
th ak
stat es
2 50
土 重
mir r
判 决
comment ators</w>
à -
的人 的
们 的
过 多
dec l
坎布里 奇</w>
出 手
t ful</w>
priv acy</w>
contin ental</w>
津巴布 韦
bon d
f illed</w>
orthodo x</w>
他 信
但 </w>
k tor</w>
将 给
un t</w>
manufactur ers</w>
assa ult</w>
困扰 </w>
port edly</w>
id a</w>
degrad ation</w>
消费 的
e at</w>
个 人的
涉及 到
丰富 的
看到 </w>
隐 私
曾 在
储备 </w>
expor ting</w>
的 非
8 00
bail outs</w>
en vis
p boc</w>
pro ves</w>
邻 国的
被 称为</w>
t ang
韩国 和
西 亚</w>
吸引 了
推 向
贪 婪
小 国
像 是
dis armament</w>
int ent</w>
生态 系统
hos tility</w>
no tes</w>
strugg les</w>
sing le-
gol d
wwi i</w>
z im
cycl es</w>
动 机</w>
因 于
f di</w>
ord ered</w>
共和党 人
欧元区 成员国
另 外</w>
的 大部分
dis course</w>
比以往 任何时候
几十年 来</w>
断 </w>
谨慎 </w>
十九 世纪
thous and</w>
entit led</w>
trad ers</w>
几 十
ap ar
压 力的
形成 </w>
ann ex
所 必须
卷 土重
边界 </w>
我们 也
scar ce</w>
20世纪 60年代
而 没有
弱 的
embe d
consolid ate</w>
inter ference</w>
先 例</w>
延 伸
必 需
i di
竭 力
vis -
束 缚
deep en</w>
sympt oms</w>
destro ying</w>
run -up</w>
tain s</w>
dat ory</w>
asp ect</w>
其 反
试图 通过
战 术
所 导致的
固 </w>
supply- side</w>
l ement</w>
东 道
所有 国家
balance- sheet</w>
半 年
sigh ts</w>
sustain ing</w>
z hou</w>
asia- pacific</w>
就 被
dam aged</w>
提 款
distinc tion</w>
el ev
suspic ion</w>
skep ticism</w>
它 可以
k i
cc p</w>
体 的
电视 台
re forming</w>
检 察
ecosy stems</w>
竞争 的
哈 萨
第 一步</w>
范围 的
维持 </w>
ma them
ch en</w>
bloc ked</w>
un known</w>
进一步 的
ide olog
维 也
总 量的
比 赛
民主 国家</w>
squ e
immigr ant</w>
破 裂
协调 </w>
decl are</w>
媒体 的
十 二
而 这种
zim bab
阻止 了
or al</w>
vacu um</w>
evol ved</w>
政 界
已 被
el u
群体 的
国内 政治
c um
采 访
li ability</w>
portfol io</w>
倡 议
悲剧 </w>
有 足够的
civil- society</w>
anti- sem
ag u
是 正确的</w>
时间 里</w>
上 帝
financi ally</w>
exclu ded</w>
有所 下降</w>
坏 </w>
up per</w>
引起 的
资本 流入
ti ght</w>
说明 了
甚至 连
为 自己
oppos ing</w>
dis content</w>
新 政府
maxim ize</w>
guid ance</w>
fron tier</w>
石油 公司
p it
cul tiv
议 题
微 妙
194 5年
un its</w>
mo on</w>
不 及
fi re
we igh</w>
shar on</w>
iraq is</w>
sil icon</w>
boliv ia</w>
指责 </w>
safegu ard</w>
加 哥
舆 论
这些 </w>
军 备
感 受到
迎 接
追溯 到
bomb ing</w>
等 国家
kore ans</w>
流 血
st ages</w>
热 衷
起 着
朝 着
封 闭
的 关系</w>
一 片
stor age</w>
一 词
fa st
动 作</w>
ext ending</w>
倒 台
一次 </w>
pun ishment</w>
bel iefs</w>
resent ment</w>
吸 取
能 获得
adv ancing</w>
似乎 已经
经济 政策
斯里兰 卡
其 余
杀 死
公 路
都是 如此</w>
op ing</w>
loy alty</w>
汲 取
所 取得的
常 态</w>
芝 加哥
vis- à-
vis-à- vis</w>
僵 局</w>
归 因于
批 判
grow th-
一 </w>
研究 表明</w>
mis sed</w>
1930 s</w>
期 的
kn owing</w>
wat ching</w>
v ested</w>
决 议</w>
消费 者的
no table</w>
bel t</w>
autom ob
金融 系统
生产率 的
的经济 增长</w>
ä </w>
ambas s
在这 里</w>
结构性 改革</w>
del ayed</w>
ach ed</w>
规划 </w>
bl ack
其中 一些
rel ent
完全 是
bar rel</w>
资 </w>
dro ve</w>
gr ound
rac ial</w>
l uck</w>
hu t
耗 费
慢 性
特 和
表现 得
但 尽管
是 中国
贸易 伙伴
大选 </w>
在过去 十年
生产 商
dist ance</w>
额 外的
就 不可能
叛 军
ambass ador</w>
咨 询
199 6</w>
机会 的
chic ago</w>
h idden</w>
衍生 品
polar ization</w>
类 型的
原 油
只 是一个
appl ication</w>
视 而不
卷 入
co er
cambo dia</w>
政治 领导人
ang el
社区 </w>
局 的
disrup tive</w>
imf 的
cl er
并 对
milit ants</w>
整 整
distingu ish</w>
民主党 </w>
har b
dri vers</w>
cathol ic</w>
k az
简 而言之</w>
dep ending</w>
bo x</w>
so aring</w>
gather ing</w>
暂 停
你 可以
儿 </w>
统治 的
经济 和社会
平 静
会 出现
in cl
同时 也是
4 3</w>
sci ences</w>
sil ence</w>
d ens</w>
他们 也
prevail ed</w>
迁 徙
税 率</w>
199 9年
medium- size</w>
怎 样</w>
benef iting</w>
并 不会
re tr
它 还
r amp
产业 </w>
商业 银行
b ay</w>
和 谐
政府 支出
201 2年</w>
chur chill</w>
j p
scenar ios</w>
生产率 增长
israeli- palestinian</w>
bel ong
surpris ed</w>
二 </w>
requi rement</w>
着 陆
compl em
公众 的
很 低</w>
集团 的
亿 欧元
sti ck</w>
8 00</w>
prin ting</w>
源 泉
inde fin
信息 的
parad ox
bur st</w>
ze al
thak sin</w>
kenne dy</w>
统一 </w>
pres crip
持续 </w>
信 奉
遏 制</w>
终 </w>
地方 的
condem ned</w>
急 需的
tain ment</w>
ngo s</w>
car ries</w>
character istics</w>
选 项
accid ent</w>
ce o
正确 地
和 非
meth od</w>
196 7</w>
的 暴力
是否 能够
布 </w>
climate- change</w>
少数 族裔
哈萨 克斯坦
coun tless</w>
and er</w>
control ling</w>
insist ed</w>
远 低于
tim ing</w>
occur s</w>
标 签
hum ili
克里米 亚
bloo dy</w>
火 箭
sacrif ice</w>
巴 格
infec tions</w>
寡 头
研究 的
re pl
promo ted</w>
war fare</w>
char is
censor ship</w>
no vel</w>
revers al</w>
不 平衡
角 度</w>
深 陷
通常 是
为 基础
开 </w>
报 酬
单 纯
liber alism</w>
愿 望</w>
有 序
很大 一部分
cal m</w>
f ies</w>
劳动 力</w>
bal k
temp ted</w>
崛起 的
就是 明证</w>
spon sor
ip cc</w>
数 学
空 中
justi fication</w>
经济 和政治
braz il
re ference</w>
在 某种程度上
ci a</w>
付 出了
商品和 服务
d owns</w>
麦 肯
财政 和
卡 尔
acc es
un anim
之 道</w>
down side</w>
激烈 的
进 攻
今 年</w>
head ing</w>
l ay
s core</w>
mid st</w>
的 关系
trag ic</w>
premi um</w>
脆弱 的
出人 意料
prof ile</w>
ran king</w>
recover ed</w>
in ations</w>
collec tively</w>
arm en
公平 的
是 其
presum ably</w>
be have</w>
友 好
fac tories</w>
ir responsible</w>
反对 党
gradu ates</w>
回 避
u ment</w>
adap tation</w>
和 世界
和 企业
demonstr ates</w>
吸引 力
迅速 </w>
brazil ian</w>
名 单
b hut
的 其他
具体 的
的 现实
assum es</w>
邻 居
级 </w>
super power</w>
olog ists</w>
资本 的
储蓄 率
回 事</w>
方 便
神 圣
inequ alities</w>
也 存在
推动 了
traditi ons</w>
sp here</w>
结构 改革
令人 不安
vi en
approach ing</w>
的 危险
dep le
re ward</w>
也 为
通 </w>
cl ar
该 协议
minim al</w>
类似 </w>
钢 铁
6 -
effici ently</w>
prev ail</w>
巴 以
卫 队
对 伊朗
顶 峰
与 以色列
观 的
家 和
ti a</w>
灾难 性的
- of-
勇 气
的不 满
bond holders</w>
no tic
放 眼
加速 </w>
更 少
subsequ ently</w>
奥运 会
collec tion</w>
diabe tes</w>
的核 心</w>
被 人
失业 率</w>
reve al</w>
体现 了
surve ys</w>
常 任理事
国际 金融
领导人 必须
聚 集
undermin es</w>
中 位
关 押
名 的
l av
ic a</w>
因为 </w>
来 看
lif est
un predictable</w>
它们 是
en su
pre val
移民 和
重 重</w>
葛 兰
democr atically</w>
dimin ishing</w>
还有 一个
赌 注
b ig
让 </w>
首 </w>
凯恩斯 主义
exce eds</w>
缺 失
comp are</w>
si t</w>
re moving</w>
难 度
外交 政策</w>
精神 病
tremend ous</w>
增 进
罗马 尼亚
3 9</w>
实现这一 目标</w>
mckin sey</w>
up hold</w>
亚 美
leban ese</w>
羞 辱
如果 说
这一 方针
de pressed</w>
spo ke</w>
be aring</w>
un ite</w>
的 需求</w>
recommend ations</w>
d am</w>
土耳其 和
negoti ators</w>
竞争 性
os ity</w>
市场 和
没有 一个
阿拉伯 人
主 管
tal i
发展 和
enti als</w>
时 报</w>
将 从
解决 办法</w>
还 不到
言 论</w>
深 层次
杀伤 性
中 被
最 后的
基 地</w>
玻利 维亚
war nings</w>
bureaucr ats</w>
t es
int ens
核电 站
ignor ing</w>
独 一无
境 况
得 益
监管 和
是 一项
经 受
exacerb ate</w>
范 </w>
contain ment</w>
决定 性
攀 升</w>
头 脑
u ber
tr ic
的 作用
君 主
扩大 了
名 为</w>
be at</w>
特别 提款
gree ks</w>
re memb
其 自身的
加强 </w>
以 外的
venezu el
enti oned</w>
更 广泛的
mathem ati
fortun ate</w>
han g</w>
社会 主义
别 的
mos qu
该 党
致 使
dev </w>
议 会</w>
列 为
un clear</w>
mi k
运 作</w>
un popular</w>
反 弹</w>
off s</w>
上 世纪
拥有 的
新闻 </w>
ar af
reck less</w>
alli ed</w>
se oul</w>
rel ation</w>
trans late</w>
vi ktor</w>
高 科技
这一 过程
与 俄罗斯
测 量
美国 国债
he t</w>
ero sion</w>
araf at</w>
pr one</w>
statisti cal</w>
consum e</w>
归根结 底</w>
制 的
determin ing</w>
遗 产
限制 了
parad ig
tre ating</w>
有 力
well- being</w>
g ers</w>
上 加
doz ens</w>
在 任何
mit ting</w>
信 誉</w>
达 成了
advis er</w>
不 复
fur </w>
predic tions</w>
repres enting</w>
trans forming</w>
可持续发展 目标
gras p</w>
随 后的
想 到
percep tions</w>
ti bet</w>
impor ted</w>
总统 候选人
能 量
著 作</w>
ep tion</w>
中央 政府
endor sed</w>
sp i
autom atic</w>
sin o-
麦肯 锡
serv ic
constitu tes</w>
s ports</w>
也就是 说</w>
波 多
tur n
value- added</w>
弗 朗
acqu ired</w>
ir rational</w>
不 起
并 以此
生存 </w>
尼 古
独 特
造成 的</w>
comb ine</w>
oper ational</w>
把 自己
superi or</w>
双方 都
阿拉 法
主 动
下降 的
lan ka</w>
这 部分
机 械
限 度
fer tili
re tro
horiz on</w>
比例 </w>
tr aff
traff ic</w>
宣称 </w>
弗 拉
信 念
借款 人
在 内
实 用
分 支
在 中东
origin ally</w>
m cc
rec essions</w>
全球 </w>
confin ed</w>
scand al</w>
在一 定
事 业</w>
正在 经历
波多 黎
波多黎 各
d p
的 威胁
mat ur
ta ught</w>
放弃 了
核 试验
好消息 </w>
增 值
exclu sive</w>
post- crisis</w>
attr acted</w>
trans national</w>
robo ts</w>
和 债务
guid elines</w>
t ap
alloc ated</w>
sing h</w>
代表 着
这样 一种
lo os
臭 名
芬 兰
li v
compet ent</w>
对 美国的
的 责任</w>
占 gdp
vent ure</w>
embed ded</w>
资本 流动
如今 的
掠 夺
农 场
restr aint</w>
法律 和
enc e-
教 徒
connec tions</w>
l ately</w>
还有 其他
低 成本
compar ative</w>
所有这些 都
能源 和
doz en</w>
管理 的
计 价
approxim ately</w>
bas ket</w>
x en
理 所
er ial</w>
缺 口
文 件
b c</w>
鲁 莽
清 除
外 包
ti an
在 国家
up grad
孩 子</w>
失 控
姿 态
情 感
win s</w>
ç </w>
accum ulated</w>
回 顾
的 地位</w>
当 我们
pot ent</w>
appl ications</w>
其 </w>
在 英国</w>
figh ters</w>
中 学
dec reas
preser ving</w>
居 高
到目前 为止
照 顾
sun nis</w>
chris tians</w>
物 的
口 号</w>
穆斯林 </w>
atom ic</w>
漫 长
moham ed</w>
了 大量
之 地</w>
two- state</w>
却 不
提供 资金</w>
for ge</w>
联合国 秘书长
in puts</w>
另外 一个
dimen sion</w>
远 未
有所 不同</w>
err or</w>
最 有可能
al ian</w>
阿富汗 的
诉 求
国际货币基金 组织的
人均 收入
dod d-
因素 是
刺激 了
清 醒
的 税收
哲 学家
初 衷
援助 的
微 不足
再 平衡
6 00</w>
更 愿意
op her</w>
谋 杀
对于 那些
est er</w>
判断 </w>
可以 说
定居 点
直 升
埃及 和
萧条 </w>
sol e</w>
genu inely</w>
了 吗</w>
br ut
接 管
犯罪 </w>
evol u
bur g</w>
c a</w>
如果 中国
8 .
fl or
res em
im pression</w>
kilome ters</w>
理论 上
职 位</w>
揽 子
种 </w>
安 抚
下 去
no -
做 些
取消 </w>
v ak
under taken</w>
succ ession</w>
够 的</w>
总统 选举
势 头
o ch
techni ques</w>
所得 税
public- health</w>
r ally</w>
hel p
den ial</w>
2 50</w>
奠 定
德国总理 默克尔
强 化</w>
d ates</w>
来 实现
手 术
g 20</w>
国 大
进一步 恶化</w>
太 多的
emp ir
tr acted</w>
以 前</w>
wind ow</w>
auth ors</w>
vien na</w>
大多数 人
坚 挺
deterr ence</w>
确 立
sem i-
大 麻
ie ties</w>
相当 </w>
应 用</w>
h ing
增长 率</w>
fo ol
sub jects</w>
de adly</w>
issu ing</w>
锦 涛
经济 衰退
全 新的
excep tions</w>
撒哈拉以南 非洲
可能 性</w>
san itation</w>
pr on
胡 锦涛
iz a</w>
定义 </w>
几 天
fl u
来 进行
weal th
带 有
dismis sed</w>
的 严重
厚 的
2008- 2009</w>
牵 涉
外国 人
工作 岗位
条约 的
国防 部长
tur bul
的 事实
electr onic</w>
sil ent</w>
其 所
201 7年
6 5
电 动
multilat er
私营 部门
inf ected</w>
民族 </w>
合适 的
medium- term</w>
有 许多
hel ic
fra ud</w>
爱尔兰 </w>
从 长期
所 发生的
代 人
就 职
b is
oun der</w>
min or</w>
bal lot</w>
s wi
但 这样的
两 极
给 我们
借 此
pi one
hol oc
海 平面
dereg ulation</w>
股票 </w>
1 ,000
le tting</w>
欧洲央行 </w>
re in</w>
hen ry</w>
distribu te</w>
中国人民 银行
distr ust</w>
massac re</w>
变 迁
r and
recor ds</w>
pre mature</w>
设 想
村 庄
sach s</w>
澳大利亚 </w>
造 就
iran ians</w>
注意 到
偏 离
但 欧洲
deb tors</w>
immun e</w>
19 0
比 美国
是 不可
phys ics</w>
占 全球
xen ophob
9 -
国际 贸易
又 是
行 列</w>
的 信息
观察 者
p y
multi p
calcul ations</w>
indi gen
征 税
多 极
的 权力
100 ,000</w>
拒绝 接受
bag hd
es cap
deliber ately</w>
dispar ities</w>
satis faction</w>
fin ished</w>
巨 型
游 击
nav al</w>
社会 党
d is</w>
mis leading</w>
nor m</w>
的 方法</w>
th esis</w>
总 部
spur red</w>
stagn ant</w>
h ire</w>
蛋 白
维 </w>
根本 性的
使 命</w>
的 说法
n on</w>
违反 了
和 地区
dist ress</w>
金融 </w>
199 8年
城 镇
contem pl
inter governmental</w>
trib un
经济 表现
dimin ish</w>
requ est</w>
star k</w>
融资 的
bos nia</w>
肯尼 迪
危机 前
su ffers</w>
加沙 地带
to t
bul k</w>
bound aries</w>
负债 </w>
更 低</w>
in action</w>
外 来
expect ation</w>
宣 言</w>
就业 岗位
让 它
想 想
管 辖
cat ch</w>
限制 在
是 我们
al es</w>
和 无
文章 </w>
r end
是 很
dodd- frank</w>
科 研
臭名 昭
购买 力
卡塔 尔
缺 口</w>
cru de</w>
在 印度
王 朝
万 亿美元的
是不 够的</w>
respec tive</w>
更 新
有 两个
穷 人</w>
coast al</w>
时间的 推移
mu dd
quar ter-
互 换
有 利</w>
执 法
估 算</w>
泰 罗
加 泰罗
frustr ated</w>
di ff
ad mir
k ir
n y</w>
indigen ous</w>
老龄 化
19 2
lef ti
doub le-
年轻 的
我 所
什么 样的
fin land</w>
ad vers
thr ive</w>
scru tiny</w>
而 </w>
侯 赛
protec tions</w>
正 规
dec ad
rout ine</w>
aff lic
大 为
工作 者
卡 特
ph rase</w>
该 公司
civ ic</w>
en rol
帝 国</w>
受 困
enti ty</w>
但 事实
enthusi asm</w>
enti ve</w>
depar ture</w>
参与 了
资本 和
开 创
deploy ment</w>
boo sted</w>
成 的
在 亚洲
b id
中 扮演
的 后果</w>
im balance</w>
stock -market</w>
共和 国</w>
citizen ship</w>
restric ted</w>
国际社会 的
al levi
to s</w>
anti-sem iti
的大 幅
fe elings</w>
deb tor</w>
thir d-
ig or
防 卫
强化 了
自由 民主
塔 </w>
收 获
补偿 </w>
产 量</w>
helic op
su spect</w>
将 这些
in tu
飙 升
perpe tr
直 面
vi br
的 道德
简 直
标准 的
派 系
cle an
hol e</w>
资本 主义的
克 萨
美国 人</w>
俱乐 部
米 尔</w>
p ick</w>
光 是
适 得
臭名昭 著
聪 明
ed e</w>
exam ine</w>
cir cul
spo ken</w>
致 死
为 基础</w>
下 台
带来 巨大的
bloo d
野 生
本 国的
vak ia</w>
约旦河 西岸
还 远远
回 到了
il es</w>
progr am
丁 </w>
di ffer</w>
inter im</w>
sa vers</w>
搜 索
赫 尔
会 计
哪 种
ing ent</w>
dra g</w>
an ger
agg rav
des ign
签署 了
substitu te</w>
一 方
进步 的
更 糟
持久 的
mun ich</w>
俄罗斯 人
待遇 </w>
cogn itive</w>
hab its</w>
慕 尼
win ds</w>
拙 劣
妇女 </w>
适得 其反
的 生活
社 团
归 功
n ight
hand ed</w>
吸 烟
no tor
distor tions</w>
深 受
us- led</w>
reli ed</w>
必然 会
c ast
但 由于
com prise</w>
ris es</w>
commis sion
联合国 大会
地 认为
fi er
super -
有 多少
post war</w>
d al
4 2</w>
indic ation</w>
ab sur
苦 难
放 大
输 出
迫切 需要
it an</w>
房 产
freed oms</w>
en i
imper f
虚 拟
到 底</w>
即 </w>
在 非洲
the ories</w>
新 型
每 次
particip ating</w>
处 的
教 科
appe ti
introduc ing</w>
诱惑 </w>
adver ti
担保 </w>
让 我
mor ality</w>
愈 烈
st ered</w>
他们 应该
ta st
差 别
叶 利
com ed</w>
tru sted</w>
波 罗
道 歉
4 7</w>
lad en</w>
贸易 赤字
person nel</w>
正 处于
招 募
construc t</w>
前所未 有
警 方
范畴 </w>
wel comed</w>
cl ash</w>
多 重
identi ties</w>
ob es
gr an
等 同
g un</w>
生物 燃料
autom atically</w>
relev ance</w>
depend ency</w>
留 给
cust oms</w>
democr atization</w>
特 拉
9月 11
reconc ile</w>
快速 增长
corpor ate-
ri o</w>
mer it</w>
facilit ating</w>
随之而 来的
defa ults</w>
b our
存 活
从而 导致
over coming</w>
sw ing</w>
边缘 </w>
exten sion</w>
真相 </w>
inv ited</w>
te a</w>
引擎 </w>
几乎 是
belg ium</w>
t ances</w>
eng ines</w>
br ink</w>
理 性的
叶利 钦
自由贸易 协定</w>
in y</w>
顶 层
阵营 </w>
无关 紧
惊 人的
ste in</w>
在201 1年
gaz pro
i ber
警告 说</w>
找 到了
归功 于
ex changes</w>
it ations</w>
听 起来
可 不是
慕尼 黑
piv ot</w>
让 其
搜 集
地 亚
撰 写
du </w>
y er</w>
军事 干预
艾 哈
的 德国
un necessary</w>
通过 了
精 心
re pay</w>
越 发
了 许多
experim ents</w>
进口 </w>
d ered</w>
成立 了
bur dens</w>
for estation</w>
the ore
为 美国
pro tracted</w>
会议 的
监管 的
越来越多 地
med ve
medve dev</w>
mis guided</w>
的 领导人
充足 的
一体 化</w>
演 愈烈
找 出
两 名
般 的
前 进</w>
财政 紧缩
抗 议</w>
取代 </w>
尽管 有
这一 数字
和 商业
inher ited</w>
ob ject</w>
oun ce</w>
c lif
检 验
了 他的
agg ed</w>
通胀 的
政客 </w>
v ary</w>
re portedly</w>
al arming</w>
工程 师
行 事</w>
到 来
营 造
召开 的
大 臣
ro ma</w>
汽 油
的研究 </w>
symb ol</w>
愈 演愈烈
gr ant</w>
19 1
牛 津
不 相
同 一个
有 一种
over night</w>
be half</w>
额 的
布 尔
kaz akh
亲 密
哈 里
cau tious</w>
ic able</w>
ch ir
疫苗 </w>
20 30年
国际 法
err ors</w>
budge tary</w>
y ug
str ain</w>
经常项目 赤字
ch ap
的重要 性
hat red</w>
ov y
bu yers</w>
和 政策
当选 总统
可 见</w>
较 低
运 行</w>
h el</w>
实 体</w>
k no
增 税
k on
b all
spectac ular</w>
rein hart</w>
olymp ic</w>
紧张 局势
想 起
一 年</w>
remin der</w>
feder ation</w>
业 的
projec tions</w>
名 列
spec trum</w>
chir ac</w>
199 7年
cap ability</w>
arch ing</w>
昂贵 </w>
ai ib</w>
长期 利率
sau dis</w>
三 驾
20 年</w>
民族 主义</w>
champ ion</w>
三分 之一</w>
munic ip
e ans</w>
亚 于
ar ticul
反 弹
emerg es</w>
基金 会</w>
im peri
fo ods</w>
都 已经
央行 </w>
转 基因
mur der
使 他们
低 下</w>
up heav
将 面临
s .</w>
姆 斯</w>
syr iza</w>
migr ant</w>
por tion</w>
发现 了
k id
蓬 勃
j acqu
psych ology</w>
trigger ing</w>
奉 行
确定 </w>
out siders</w>
f arming</w>
平 息
nation alists</w>
的 说法</w>
三驾 马
儿 子
顶 尖
perpe tu
kazakh stan</w>
cl au
met aph
gg ed</w>
夸 大
197 3</w>
政府 可以
产能 过剩
john son</w>
发挥 作用</w>
abdul lah</w>
健康 和
是 如此
支持 率
很 好地
明 星
将 达到
sw iss</w>
in complete</w>
非政府 组织
标志 </w>
micro soft</w>
包 围
出 一
bo y
往往 是
别 人
separ ation</w>
comfor t</w>
tro ika</w>
解决 的
维 亚</w>
decisi vely</w>
dub ious</w>
压 低
政党 的
希 拉克
re placing</w>
convic tion</w>
sal e</w>
娱 乐
越来越 大</w>
也 让
ach ment</w>
任 总统
软 实力
实际 的
3 ,
separ ati
摇 摆
开发 </w>
holoc a
的领导 人</w>
dr ought</w>
在201 2年
symbol ic</w>
ul ar
金本 位
各 州
跨国 公司
而 不仅仅是
acces sible</w>
equ itable</w>
zimbab we</w>
5 ,000</w>
的 谈判
sec ured</w>
inher ent</w>
垃 圾
邻 国</w>
indic ator</w>
是 不是
bi om
的 特
p und
的全球 经济
s mu
色 的
而 后者
l ers</w>
prud ent</w>
1. 2</w>
st ations</w>
意识到 </w>
res cu
渗 透
t ext
holoca ust</w>
sen tim
的人 道
我们 有
贫困 的
的 基础</w>
ati vity</w>
日内 瓦
年轻 人</w>
携 带
en ko</w>
军 事实
欧洲 银行
evolu tionary</w>
s ounds</w>
了 近
恰 当
yn ard</w>
ma ynard</w>
惠 及
在201 3年
美 中
car ds</w>
不 稳定</w>
negl ect</w>
- minded</w>
化学 武器
本 次
艰 苦
加拿 大</w>
w en</w>
lif ted</w>
sh ow
bas el</w>
冷 静
scen e</w>
t ably</w>
un usual</w>
追 踪
ox ford</w>
pack ages</w>
花 在
演 讲</w>
西 部
安 德
ovy ch</w>
的 个人
关 税</w>
re tali
令人信 服
客 </w>
与 西方
impover ished</w>
clif f</w>
mis sions</w>
br and</w>
解决 问题</w>
一 贯
满 意</w>
为 期
已经 从
form ula</w>
assess ing</w>
科 夫
保持 在
scienti st</w>
influ enced</w>
ar d
傲 慢
站 不住
路 径
一 下</w>
de ter</w>
stor e</w>
laun ching</w>
扩散 </w>
危险 的</w>
skep tical</w>
审 视
bac ter
的 日本
将在 未来
不 在于
ben ign</w>
norm alization</w>
c ross</w>
硅 谷
纽 黑
赫 鲁
aband oning</w>
所 提供的
风 格
c p
dru g-
dis courage</w>
dr in
witn essed</w>
fu tures</w>
前 途
sub sid
民 用
对 峙
内部 </w>
con spir
世界 其他国家
城市 化
top -
me at</w>
jacqu es</w>
那里 的
明智 的
audi ence</w>
encour ages</w>
under ground</w>
看 成
7 00
a a
终 极
显著 </w>
监管 机构
p age</w>
世界 卫生
aggres sively</w>
细 菌
广 播
cre ativity</w>
200 7-
有限 的
clau de</w>
pre tty</w>
食品 </w>
defic i
dec entr
自由 化</w>
品 的
萨尔科 奇
晚 </w>
帝国 主义
社会 和经济
难 免
entrepreneur ship</w>
he ating</w>
发挥 了
hi kes</w>
甚至 在
ad her
m its</w>
obes ity</w>
u tes</w>
概 率
拒绝 了
医疗 保险
dict ator</w>
研究 所</w>
制造 商
it ating</w>
便 利
br ief</w>
首相 安倍晋三
h ide</w>
一 起</w>
f om
bel ar
监 测
但 不
原子 能
rec ur
加泰罗 尼亚
3 .5</w>
对 象
metr ic</w>
败 </w>
yan uk
高 兴
从 一开始
获胜 </w>
的一 致
avo idable</w>
au d
都 认为
凸显 出
吞 并
亚美 尼亚
税收 和
spre ads</w>
pro xy</w>
th rown</w>
骄 傲
int ol
背 叛
很 长
marsh all</w>
wr ong
的 任何
e di
ban ned</w>
植 物
维持 在
用 水
衰 落</w>
少数 派
略 有
新加坡 </w>
在 全世界
陷 于
po ised</w>
ro go
境 地</w>
refl ection</w>
香港 </w>
re wards</w>
cal der
ten -year</w>
repe at</w>
的 潜在
眼 下
流 行的
忽视 了
recomm ended</w>
的 中
最 快
热 带
材 料</w>
娜 </w>
my th</w>
supp liers</w>
独一无 二
crimin als</w>
被 称为
tell s</w>
适 用
直接 投资
si z
yel t
的 压力
亚 努
梅 德
s ors</w>
重 创
accompl ished</w>
就像 是
n t
信息 和
fac tions</w>
控制 着
收入 不平等
be an</w>
在 那
p an-
cont est</w>
help ful</w>
一个 世纪
arsen al</w>
10 -
rev ised</w>
或许 会
救 济
富 有的
这场 危机
与 会
mir acle</w>
v ast
和 反
瓦 尔
世界 杯
proc essing</w>
飙 升</w>
所 需要
器 官
industri alized</w>
ess ness</w>
比利 时
out flows</w>
yanuk ovych</w>
落后 于
ta y
往往 会
重要 作用</w>
much- needed</w>
预示 着
i k
但 这个
s un</w>
思考 </w>
gdp 比率
来 临
bench mark</w>
f id
attr acting</w>
f ab
ail ed</w>
功 能</w>
对 他
饮 食
p ap
正 面
对 以色列
我们 知道
重 蹈
的人 类
ent ail</w>
ex -
适 当
惑 </w>
以 避免
耐药 性
囚 犯
等 国
争议 的
国内 </w>
逊 </w>
伊斯兰 国的
结构性 改革
的 第一
举 例
exc use</w>
adv ent
检 测
d p</w>
lif ting</w>
h iring</w>
exclu sion</w>
精英 </w>
美 好
条件 的
评 价
nam es</w>
的 战争</w>
consci ous</w>
较 高的
斯 拉夫
巴西 和
世界 领导人
e z</w>
由 美国
mem ories</w>
对 国家
sour cing</w>
pro pon
contain s</w>
战略 的
财富 的
原 始
pu er
得 上
制定 的
cas u
会 上
其实 </w>
imag in
e y</w>
exter n
罪 行
可以肯定 </w>
宣 告
ad dic
prob ability</w>
私有 化
目前 正在
proce ed</w>
民 </w>
但 许多
需要 一个
在 英国
指 出的
运动 员
e ve</w>
已经 有
in ism</w>
min ing</w>
west ern
文化 和
想 象</w>
不 已</w>
央行 的
储 存
全世界 最
缔 造
学生 </w>
d um
sched uled</w>
l t</w>
bit ter</w>
borrow ed</w>
印度 人
d in
没有 理由
com position</w>
trad ed</w>
lux ury</w>
ing re
l ender</w>
g ar</w>
sig ning</w>
希腊 政府
有一 天
的 地方
m al</w>
折 </w>
低收入 国家
沙特阿拉伯 </w>
撤 销
t el</w>
da unting</w>
法 则
see kers</w>
se ized</w>
optim al</w>
re war
数百万 人
重 视</w>
的 老
弗里德 曼
打 交
prof itability</w>
方 济
9 9</w>
更 重要的
发展 援助
tr ip
群 </w>
都 不能
并且 </w>
相 提
人 权</w>
恰 当的
em powered</w>
inflation- adjusted</w>
periph eral</w>
解 散
1 20
crow d</w>
re pair</w>
bas es</w>
keep s</w>
掉 </w>
over ly</w>
纽黑 文</w>
disproportion ate</w>
劳动 力的
数 年
颁 布
出口 的
mil ton</w>
负责任 的
维 克
被 用于
fragm entation</w>
使 之
大规模 杀伤性
迫 害
certain ties</w>
沿 海
相当于 gdp的
excep tional</w>
in spec
指控 </w>
empir ical</w>
也 不可能
承担 </w>
相提 并
极 少
内 需
ingre di
哲 学
奢 侈
mal nutrition</w>
大 致
利用 其
form idable</w>
小 时</w>
良 好</w>
i ii</w>
a wa
印 象</w>
语 言</w>
yelt sin</w>
居住 在
的 要
微 软
de tec
è </w>
tax -
produc er</w>
邦 </w>
但 即便
sec ular
euro bonds</w>
纲 领
尝试 </w>
已 故
pl u
恰恰 是
remit tances</w>
autonom ous</w>
egyp tians</w>
各 地
ration ale</w>
拉 动
议 题</w>
g an</w>
incumb ent</w>
和 能源
hand le</w>
深 远的
注意 </w>
far- right</w>
技 巧
rece ives</w>
mis s</w>
vibr ant</w>
phil anthro
md gs</w>
但 如今</w>
爆发 的
监督 </w>
ay at
sy ri
正 因
政府 间
centr alized</w>
公共 和
应 有的
am r</w>
根据 这一
aff lu
雅 典
ar a</w>
的 利益</w>
℃ </w>
大 相
家 长
最 严重
完 成了
兑 换
urg ency</w>
充分 就业
帝 国的
操纵 </w>
op ping</w>
有 很多
在这种 情况下</w>
reg re
漫 长的
它 必须
inflic ted</w>
战 的
1 20</w>
fl ed</w>
尤其 如此</w>
no tice</w>
的 家庭
high light</w>
留 下的
纳 米
产品 和
梅德 韦
夺 走
外交 部长
e str
民 党
一 天
掉 了
巨大 的</w>
ter y</w>
c ited</w>
2008 年的
技术 官僚
摩 尔多
个 国家的
coun ted</w>
cli ents</w>
pro claimed</w>
pos sibilities</w>
d est</w>
径 庭
fortun e</w>
在过去 的
与 美国的
te ach</w>
quarter- century</w>
并 以
示威 者
top ic</w>
lik es</w>
tti p</w>
球 </w>
他们 还
男 女
令人惊 讶
ant agon
阿根廷 </w>
公司 税
ga ul
arbitr ary</w>
le th
色 彩
统计 </w>
我们 能够
paral y
这一 目标
堡 </w>
提 及
m istr
h ind
militi as</w>
内 政
for th</w>
comp act</w>
philanthro p
无 一
b ar</w>
amoun ted</w>
此 时
孟 买
ke en</w>
al ter</w>
re act</w>
复 制
lef t-wing</w>
或者 是
几 年</w>
现代 化</w>
ref using</w>
与 否
tac tical</w>
un fol
tan ks</w>
s lu
fish er
up s</w>
im minent</w>
yug os
欧洲 一体化
break down</w>
是 什么</w>
acc us
一 是
这 段
divid ends</w>
imp unity</w>
平 稳
六 年
要 为
win ner</w>
对 我们
不 用
将 近
比 尔</w>
例子 中</w>
9 月</w>
成为 世界
时 机</w>
rout inely</w>
政府 债务
世 行
fe es</w>
新 生
six -
bloc king</w>
jour nal</w>
sp ends</w>
市 长
rogo ff</w>
权威 </w>
haz ard</w>
高 乐
201 1年</w>
被 证明
cosm opol
e .</w>
沉 重的
急 于
处理 </w>
所 欲
三 倍</w>
个月 </w>
ji ang</w>
paral ysis</w>
全球 的
in jec
re treat</w>
list en</w>
g est
gazpro m</w>
rev ived</w>
成 分
ec tly</w>
理想 </w>
操 作</w>
b ord
disrup tions</w>
世界经济 论坛
arg o</w>
t ling</w>
灵活 性</w>
str ange</w>
read y-
东 北
naz is</w>
g and
果真 如此
di am
resist ed</w>
hi er
conce iv
常 </w>
捕 捞
w re
有 其
se eds</w>
增强 </w>
inv ari
it ary</w>
面 前</w>
方济 各
tow ns</w>
puer to</w>
为 他们
半个 世纪
很少 有人
阻 挡
c k
ra id</w>
perman ently</w>
资本 账户
失衡 </w>
工资 和
巴 塞尔
近几年 来</w>
om in
仅 为
把 持
pe di
述 </w>
戴 高乐
的人 权
车 臣
paradig m</w>
es e-
underst ands</w>
十年 前
chem ic
继续 </w>
ne ed
创造 </w>
战争 中
clos est</w>
场 合
意 在
di et</w>
dr one</w>
亚努 科
政府 官员
intensi fied</w>
论 者
cr ack
gg ish</w>
win ter</w>
大幅 下降</w>
re actions</w>
reve als</w>
ast y</w>
ec tive</w>
姿 态</w>
的最 低
靠 拢
预算 的
sd g</w>
ail ing</w>
联合 国</w>
它们 可以
生产 性
在这 里
lo ose</w>
联合国 气候变化
cul min
到20 50年
w ary</w>
大 国的
圣 诞
occa sion</w>
首席 执行
的 力量
亚 投
dis credited</w>
当务之急 </w>
夸 张
开 罗
go od
ell en</w>
autom ation</w>
保护 和
令人 担忧
各 项
coal itions</w>
amend ment</w>
阿富汗 和
一 度
complac ency</w>
例子 是
margin alized</w>
ecosy stem</w>
基督 徒
provin ces</w>
做好 准备</w>
sup pose</w>
bu ff
environment ally</w>
利 于
coer ci
有 毒
较 低</w>
be ars</w>
的人 数
al- qaeda</w>
萨 默
同时 还
favor ite</w>
him a</w>
clos ure</w>
spe ech
朝鲜 </w>
无 情
我们 正在
幻 想
一 届
欧盟 领导人
thin ks</w>
appeti te</w>
liter ally</w>
g ue</w>
违 背
抵 达
gr im</w>
embrac ing</w>
总统 巴沙尔</w>
扭曲 </w>
flo od</w>
parliam ents</w>
al co
将 比
activ ist</w>
gen om
溢 出
国务 院
sli de</w>
商 务
pr er
prof ession</w>
gr ants</w>
asser t</w>
流 的
成为 </w>
satis fy</w>
cur b</w>
主权财富 基金
幻 想</w>
摩 根
如何 应对
先 决
2008 年</w>
su sc
适 当的
大相 径庭
central- bank</w>
scand in
但 只有
op ec</w>
实体 经济
non- state</w>
实验 </w>
阿拉伯 世界的
也 比
h ate</w>
政客 们
将 把
条件 下
核 计划
机制 的
关键 的
家 宝
但 要
在这 场
jean- claude</w>
danger ously</w>
perv asive</w>
sit ting</w>
dep th</w>
tr ick
long- standing</w>
ab a</w>
形成 的
pi ec
den ying</w>
建立 的
借贷 成本
死亡 人数
曝 光
监 禁
对 比
展开 </w>
环境 中
一个 人
invari ably</w>
vie wing</w>
rene goti
的信 心</w>
coun ts</w>
接 下来
上 任
损 害</w>
竞 赛
ab rup
因为 这些
1. 4</w>
an o
指 定
德 尔
设备 </w>
民族 国家
imag ined</w>
h am</w>
讨价还 价
ha il</w>
at ories</w>
l en</w>
结果 的
国家主席 习近平
be tr
发 育
per mitted</w>
将 决定
海 上
将 进一步
依 存
层 </w>
比 起
practic ally</w>
war -
有 机
对 未来
comb ating</w>
期 限
哪 里</w>
主权 的
privileg ed</w>
may or</w>
n our
崩溃 的
的 方法
不 善
抗 药
相应 的
解 雇
可能 对
ca uc
conclu sions</w>
大宗商品 价格
su e</w>
暴跌 </w>
法 德
协 商
baghd ad</w>
rad ically</w>
i est</w>
d ol
sigh ted</w>
丹 </w>
伯南 克
被 捕
规 避
消除 </w>
呼 声
责任 的
意识形 态</w>
co st
传 达
温 家宝
em it
贷款 的
satis fied</w>
但 他的
iz ations</w>
宝 座
镇压 </w>
五 大
ti sh</w>
缴 纳
最 多的
c n
真 是
insp ire</w>
reluct ance</w>
200 0
变得 更为
境 内
mcc ain</w>
空 袭
早些 时候
在这样的 背景下</w>
worsen ing</w>
2 ,000</w>
p ure</w>
ag og
cc er</w>
pri or
alco hol
hol y</w>
中国 已经
gu err
上升 的
nation- state</w>
迹象 表明
fragm ented</w>
欧 美
g- 7</w>
stri p</w>
w w
时 所
f ounder</w>
眼 </w>
austr alian</w>
是否 应该
沮丧 </w>
el ig
根深蒂 固的
安 </w>
in sights</w>
可以 </w>
199 1年
主导 的
wil d</w>
第一 </w>
本 币
政府 已经
0 .5</w>
研究 者
当选 </w>
危 及
tr apped</w>
ec ological</w>
episo de</w>
尼泊 尔
griev ances</w>
over throw</w>
一 半</w>
看 不到
假 定
业 务</w>
bo ards</w>
so ccer</w>
是 将
低迷 </w>
高 风险
out standing</w>
印度 尼
节 省
á n</w>
attribu ted</w>
民 营
严厉 的
fav ors</w>
的人 来说</w>
关 塔
股 本
20 25</w>
得益 于
advoc ated</w>
的影响 力
西 奈
总体 而言</w>
开放 的
欺 诈
m -
u st
平均 水平
技术 进步
损害 了
美国 和其他
制 作
儿童 的
m ess</w>
evol ving</w>
公 务
的信 贷
为 我们
一 座
re pu
natur al-
回归 </w>
anti- corruption</w>
史 上
在经济 上
intens ity</w>
municip al</w>
是 世界
的 利益
st alled</w>
nom ination</w>
resour ce-
的 数据
正因 如此</w>
穷 人的
妇女 和
我们 还
er ad
会 将
蒙 受
在 叙利亚
是 一位
电 网
满足 </w>
pund its</w>
doc ument</w>
副 总统
法 治</w>
coll ect</w>
倒 </w>
um n</w>
裁 军
词 汇
如果 要
显而易见 的</w>
fe els</w>
cen tered</w>
deser ves</w>
z ion
就 在于
m umb
inter action</w>
al igned</w>
erad ication</w>
加 勒
告诉 我们</w>
透明 </w>
随 机
gand hi</w>
reason ing</w>
发自 纽约</w>
萎 缩</w>
的影响 力</w>
这么 做
国家 在
fr ac
草 案
在 198
认为 是
货币 联盟</w>
难 度</w>
小 学
yi p</w>
和 欧盟
情 景</w>
转 </w>
roman ia</w>
6 2</w>
p al</w>
仍 未
缩 短
拓 展
丧 生</w>
富 豪
大 批
negl ected</w>
为 人
执政 </w>
er ic</w>
tack ling</w>
合 成
编 辑
aver aged</w>
匮 乏
重 重
fluctu ations</w>
acqu is
来 讲
证据 表明</w>
medic are</w>
在 很多
as sur
随着 时间的推移
将 由
金融危机 的
治 愈
balk ans</w>
pro pose</w>
乌 干
我们 不
大 卫</w>
不 变</w>
报 导
会 把
in hib
f as
unilater ally</w>
最初 的
8 年</w>
农业 </w>
减 弱</w>
ignor ance</w>
十年 的
接 纳
结构 改革</w>
力 度
ro ad
ric o</w>
a us
9 .
市 民
restric t</w>
避 难
劳动力 市场</w>
il lo
一定 的
do ors</w>
日本 银行
end less</w>
s la
st agger
p ar</w>
可以 成为
在 德国
法庭 </w>
d os
she er</w>
中 立
安 南
er t</w>
subsid y</w>
个 人</w>
储 户
双边 关系
不同 于
变革 的
re mov
equ ities</w>
con fer
4 1</w>
sch um
格 里
h indu
阿 里
带 一
弱 点
十 字
docum ented</w>
nineteen th-century</w>
局 部
isol ation
distur bing</w>
it ous</w>
199 5年
追随 者
auto cratic</w>
的 商业
债权 人的
dis sid
explo sion</w>
exten ds</w>
尴 尬
可能 造成
似乎 也
二战 结束
至少 是
公投 </w>
conven ient</w>
很快 就
as sist
我们 要
life time</w>
s adly</w>
美国 应该
therap y</w>
辩护 </w>
生产 和
co vering</w>
资源 和
阅 读
人 死亡</w>
ess ence</w>
货币 市场
通缩 </w>
国际 刑事
consid ers</w>
elim ination</w>
公 路</w>
y cl
multilater alism</w>
债务 和
科 威
这个 数字
加入 欧盟
respon sive</w>
st ro
尊 敬
一 方面</w>
š </w>
典 型的
腺 癌
等 到
上 周
的 理由
ann an</w>
3 7
aver t</w>
无法 在
无 能
现 今
制度 和
分 为
大 得多</w>
高昂 的
rad io</w>
ci ally</w>
非常 重要</w>
队 伍
c d
196 7年
港 口
inter connected</w>
sing er</w>
el son</w>
社会 福利
rec ep</w>
syst ematic</w>
可能 的</w>
dr oughts</w>
deliber ate</w>
没有 得到
实 实在
长期 以来</w>
remov al</w>
这 三
b ail</w>
月份 </w>
努 力的
因素 的
n ex
appl ying</w>
emp ty</w>
r um
最终 将
迟 早
这样 一
无 不
的 选民
顺 差
gr ip</w>
incid ence</w>
govern ors</w>
希腊 和
比 喻
入 学
mumb ai</w>
腐败 和
bab y</w>
de forestation</w>
neutr al</w>
ai res</w>
mind set</w>
摩 擦
重 回
无 意
板 </w>
epid em
believ ing</w>
传统 上
控制 权</w>
差 不
tay yip</w>
至关 重要的</w>
一个 更
电 力</w>
sl ump</w>
糖尿 病
波兰 </w>
concer ted</w>
的 发展</w>
k is
罪 行</w>
emo tions</w>
的经济 发展
指出的 那样</w>
bomb s</w>
她们 的
辞 职</w>
mal i</w>
当今 世界
des pair</w>
创 纪录
agend as</w>
vol cker</w>
with standing</w>
em or
dou bling</w>
soci alism</w>
停滞不 前</w>
speech es</w>
j p</w>
资本 主义</w>
deterior ation</w>
昂贵 的
以 前的
互 动</w>
through s</w>
main land</w>
fa ult</w>
得 太
因此 而
la via</w>
ass ing</w>
低估 了
这一 结果
肆 虐
coordin ate</w>
律 </w>
朋友 </w>
住 了
美国 人的
的 可
朝鲜 的
manufac tured</w>
从 某种程度上
贫困 和
i th
工业 革命
件 事
不 符合
会议 员
比如 说</w>
mon thly</w>
k ly</w>
yugos lavia</w>
on ist</w>
presid ent-
break throughs</w>
漏洞 </w>
quie t</w>
ine ffici
停止 </w>
b un
h iv
h r
20 -
iz </w>
telec om
和 我
根 于
l acked</w>
cont act</w>
则 在
俄罗斯总统 普京
认可 </w>
r ous
在201 4年
生活 中
ga ther</w>
人民 党
trans action</w>
赶 超
叙 事
普遍 </w>
徘 徊
expl or
w as
源自 于
re medi
sk y
经济学 奖
清 理
in capable</w>
resol u
organ ize</w>
权力 机构
ell ite</w>
gar ian</w>
swed ish</w>
年 底
h il
歇 尔
gener ates</w>
之间的 关系
来说 是
彼 得
看 护
ach es</w>
sat ellite</w>
lever aged</w>
研究 人员
en forced</w>
必 定
5 3</w>
bo oming</w>
domes tically</w>
避免 </w>
债权 人</w>
academ ics</w>
oppon ent</w>
催 化
诚 实
s r</w>
亚洲 和
暴 行
基金 组织
ic h
艾哈 迈
投资 银行
deplo y</w>
sp illo
北 极
下 一代
广 受
付 诸
wit ness</w>
贿 赂
但是 它
em in
融 合</w>
mar i
emis sion</w>
而 欧洲
能够 让
论 点
为 主
un -
各 类
堂 </w>
交易 的
可以 将
tang ible</w>
通胀 目标
renew ables</w>
g ang</w>
魅 力
生活 方式
在 中国</w>
end anger
服务 和
es -
开 来</w>
的 使用
机 场
res on
&apos; t</w>
充分 利用
不可能 </w>
º </w>
里 程
counter productive</w>
来 应对
self- interest</w>
prec au
orig ins</w>
al ready-
conf id
hand ful</w>
ad ult</w>
谈判 中
wor sen</w>
佛 罗
intim id
explo ited</w>
近几年 来
给 他们
著 作
集 权
斯蒂 格
跟 踪
外国 投资者
热 </w>
ad mitted</w>
re placement</w>
unle ashed</w>
这 并不
挥 霍
仅 限于
协 会
p a</w>
穆罕默 德</w>
瘫痪 </w>
cou pled</w>
宗教 </w>
frank lin</w>
崇 拜
次 于
b ah
人们 所
declar ing</w>
贷款 人
总 的
postp one</w>
gas ol
a qu
不久 </w>
可能 成为
si veness</w>
丘 吉尔
em bo
dict ators</w>
视而不 见</w>
transi tions</w>
规定 的
居高 不
谴责 </w>
su ited</w>
decre ase</w>
indirec t</w>
pill ar</w>
ayat ollah</w>
奏 效</w>
无 处
sm ith</w>
ch i
gen ome</w>
du ties</w>
u tili
奋 斗
英国 政府
截然 不同的
被 告
撤 出
dar fur</w>
toler ate</w>
是 要
墙 </w>
.. .</w>
fl owing</w>
基础 上
nor theast</w>
president- elect</w>
加 </w>
sti l
confu ci
k ov
足 </w>
对 方
期 望</w>
十 亿
是 让
g ro
债券 市场
见 证
stat e
将 不会
债务 负担
man del
fi res</w>
tough er</w>
马 尔
惊 人
j um
不 公平
建设 性
其中 最
港 </w>
sin ai</w>
inst inc
lin k
能力 和
in ating</w>
它们 所
不 乏
员工 </w>
公共 财政
极 限</w>
未 知
episo des</w>
了 一些
motiv ation</w>
2008年 全球金融危机
最 坏
dis appear</w>
欧洲 在
在一定 程度上
医 药
m are</w>
挑 选
有一 点
ter min
上 一次
符 </w>
在 俄罗斯
fe ed
gg ing</w>
liber ties</w>
巴格 达
histor ians</w>
穷 </w>
艰难 的
中小 企业
胜 出</w>
ha ir
但 即使
class ical</w>
read ily</w>
gu ant
te en</w>
in sight</w>
stan ford</w>
re sts</w>
麻 痹
激 起
急 切地
徒 劳
smo king</w>
接受 的</w>
ha iti</w>
下 令
nom ine
reci pe</w>
算 不上
他 认为
难 题
复兴 </w>
峰会 上
因为 其
化 解
vast ly</w>
自 行
calder ón</w>
王 国
re think</w>
atro cities</w>
科 尔
rel ax
上 限</w>
的 程度</w>
和 民主
激 怒
看 着
领导 力
很 小</w>
be ings</w>
实实在 在
软 实力</w>
不 信任
sponsor ed</w>
su its</w>
那 就是</w>
sil k</w>
resolu tions</w>
告诉 我们
意大利 的
税收 收入
outr age</w>
slog an</w>
telecom mun
如果 他
奥斯 陆
not withstanding</w>
野 心</w>
也 正在
batt le
而 应该
吸引 力的
t ab
accompl ish</w>
科学 的
和 水
可以 追溯到
ang s</w>
工作 人员
cred its</w>
中央 银行</w>
直升 机
受益 于
diversi fication</w>
卡 尔德
respon d
不 喜欢
提 </w>
的 后果
g y
为 数
categ ory</w>
dis appeared</w>
hum iliation</w>
利比亚 </w>
孤立 </w>
教 派
制药 公司
达沃 斯
man ship</w>
一 群
欧 亚
成年 人
d amp
safegu ards</w>
知 名
桥 梁
s ca
de vis
ob am
定义 为
收入 分配
岛 屿
tu ber
benefic i
门 槛
自由贸易 协定
被 用来
high- tech</w>
笑 </w>
ound ly</w>
5 7</w>
行动 方
ug anda</w>
尽管 在
浪费 </w>
不 变
民族 主义的
is tically</w>
了 他们的
必须 得到
asi ans</w>
perf ectly</w>
一定 会
bl own</w>
把 握
ol d-
integr ating</w>
强 奸
可能 需要
并 </w>
开 端</w>
疗 法
振 奋
必要 的</w>
之 三
revolu tion
ar ctic</w>
切 </w>
appe als</w>
平等 的
结束 了
ic ts</w>
准则 </w>
英 语
res ha
坚 信
增长 模式
5 1</w>
落 入
lar ry</w>
避免 了
疫 情
膨胀 </w>
under going</w>
界 </w>
def ensive</w>
xia oping</w>
enligh tened</w>
如何 在
可 见
dedic ated</w>
sal v
euro s</w>
多 德
装 备
它 对
从 现在
wil d
准备 金
包 </w>
解 体</w>
prev entive</w>
永久 性
辞 </w>
不是 一个
mus ic</w>
有利 的
预测 的
透明 度</w>
这 会
invest ment-
效 益</w>
milit arily</w>
第二 轮
disap pointing</w>
ramp ant</w>
revol t</w>
cl out</w>
无法 解决
rev is
等同 于
st ressed</w>
危机 和
transi tional</w>
生 殖
dp j</w>
持续 下去</w>
用 了
将 这一
1. 6</w>
m atic</w>
风 能
calcul ation</w>
的 石油
indu ce</w>
另 一场
股票 市场
分 化
10 ,000</w>
不同 的是</w>
丝 绸
des c
long standing</w>
充分 </w>
war m</w>
挂钩 </w>
知识 和
此 后</w>
teen th</w>
c t
美联储 </w>
财政 政策</w>
alleg edly</w>
的 态度
众 </w>
dis agree</w>
我们 就
稳定 性
中获 益
bi partisan</w>
在 197
techno cratic</w>
的 传统
的 行动</w>
里 亚
设计 </w>
18 7
化 合
s port</w>
美国 国务卿
基 石</w>
traffic king</w>
gdp 增长率
可以 获得
div or
而 在于
fer tility</w>
pre mis
ques tion
g b</w>
vehic le</w>
os lo</w>
成熟 </w>
pro te
欧洲央行 行长
拉 圭
to- gdp</w>
uni verse</w>
告 终</w>
沿 岸
克鲁格 曼
诺贝尔 经济学奖
杰 夫
运 </w>
有 意义的
铺 平
意大利 和西班牙
ot tom
包括 </w>
金融 和
无 比
mol do
promp ted</w>
connec tivity</w>
fre eze</w>
现代 化的
every body</w>
insist ing</w>
集 中</w>
ex hau
fl at</w>
开发 银行</w>
黎巴嫩 </w>
market- based</w>
gh ana</w>
adverti sing</w>
risk- taking</w>
军 官
尚 不
污染 </w>
以 一种
近 的
off shore</w>
培 育
惊 讶
版 </w>
aw ak
ni e</w>
war ran
百 姓
ma ster</w>
wal k</w>
合同 </w>
ru b
扩张 性
获得 者
sta ur
as por
lo -
之 中
y ellen</w>
命 令
这些 问题</w>
re affir
m ou
那 时</w>
leth al</w>
近 来
转型 的
en ly</w>
im plo
第四 </w>
guil ty</w>
不能 再
explo itation</w>
marke ting</w>
be st-
言论 自由
钟 </w>
院 </w>
wil li
论 证
flo ods</w>
八 十年代
将会 是
审 核
分 化</w>
误 解
我们 无法
但 有
各自 的
contain ing</w>
continu ous</w>
审判 </w>
stal em
ten ure</w>
交 流</w>
原因 在于
demonstr ating</w>
一 部
it z</w>
ex hib
剩 下
的 名
be ar
export -led</w>
un ra
热衷 于
次 要
治 国
it ems</w>
储 量
新 一代
e fire</w>
ceas efire</w>
吃 惊
dre ams</w>
school ing</w>
案 例</w>
葡萄牙 </w>
根 </w>
di aspor
loc ations</w>
cor ner</w>
能 使
shrin k</w>
bud d
的 有效
mik hail</w>
社会 和
oc eans</w>
的 美国人
sim p
intensi fy</w>
re staur
de tr
权利 和
猛 烈
通货 紧缩
sugg es
斯 堪
并 把
几乎 肯定
骚 乱
屈 服
利益 和
k ash
关键 性
压倒 性
inv ented</w>
propon ents</w>
而 受到
将 自己
评论 家
道而 驰
背 道而驰
将 带来
the or
vers y</w>
immun ization</w>
do g</w>
也是 一个
智慧 </w>
调整 的
詹 姆斯</w>
contro versy</w>
金正 日
全世界 </w>
bro ther</w>
贡献 了
麦 凯恩
tr a</w>
保 卫
with stand</w>
under estimated</w>
moun t</w>
teach ing</w>
公正 的
它们 对
smoo th</w>
fertili z
pr a
裁 决</w>
这 座
桑 德斯
合作伙伴 关系</w>
identi fying</w>
脊 髓
山 </w>
坐 视
他们 就
h t</w>
graph y</w>
一 书
微 观
sum s</w>
其他 地方
comm only</w>
emb arr
man datory</w>
这是 一种
g b
向 前
em an
com prising</w>
谎 言
meg a-
同 胞
的 重大
福 岛
的 变化</w>
管理 者
tuber cul
tubercul osis</w>
i k</w>
错 了</w>
v ague</w>
rati ves</w>
nar ratives</w>
绝 不
ide als</w>
偏 见
mor s</w>
an bu
ist anbu
istanbu l</w>
vi e</w>
全球 气候
痛 </w>
反 驳
积极 地
it ated</w>
才 有可能
化 了</w>
ac es</w>
重要 的一
l ula</w>
export -
initi ate</w>
some where</w>
li p</w>
assass ination</w>
war d-
ul ative</w>
官员 们
interpre ted</w>
瓜 多
厄 瓜多
我 对
fo o
富 翁
影响 着
health ier</w>
rati fied</w>
和 军事
s f</w>
ad ol
投入 </w>
maintain s</w>
范围 内</w>
赞 扬
dec iding</w>
不足 为
center- left</w>
stu died</w>
的 价值
无 非
减 税</w>
淘 汰
一 开始</w>
out lets</w>
hun gry</w>
conce ived</w>
hurric ane</w>
mass es</w>
指出 的</w>
大 笔
pun ish</w>
p light</w>
公 然
这个 世界
并 让
忙 于
revel ations</w>
讽刺 意味
ex pres
力 更
日 趋
un certainties</w>
4 5
3 8
不安 </w>
罗 德
ti ci
hop ing</w>
e h</w>
mistr ust</w>
upgrad ing</w>
wast ed</w>
催生 了
assess ments</w>
也 与
sentim ents</w>
可 供
让 中国
除此 之外</w>
除 </w>
日本 经济
花 钱
的 巴勒斯坦
走 私
th row
反 腐
inter dependence</w>
exc esses</w>
重 大</w>
慢 慢
ent able</w>
fr igh
满 意
灾难 的
生产 者
精英 阶层
其他 地区
派 别
refer red</w>
和 更
那些 在
殖民 地
能源 的
强劲 </w>
abund ant</w>
blu e
公正 </w>
的 伊斯兰
快速 增长</w>
将 有助于
事 先
facilit ated</w>
以 防止
fu sion</w>
缺 </w>
的历史 </w>
exist ed</w>
fron ts</w>
jong- un</w>
个 性
necess ity</w>
benefici aries</w>
辐 射
我们 应当
电 厂
示威 </w>
到 期
全球 性的
arr ive</w>
resid ential</w>
地 图
亚 马
所有 权
好消息 是
曾经 是
多样 化
灌 溉
vulner abilities</w>
资格 </w>
dispu ted</w>
的 移民
买 卖
无关 </w>
valu ations</w>
d ness</w>
moder ation</w>
auth or</w>
斯 托
谁 </w>
海 地
tex as</w>
rev iving</w>
未 经
bil lion
20 20年
的 地区</w>
b y-
升 温
over looked</w>
南 斯拉夫
jud ged</w>
ma a
maa stric
不 大
能够 获得
法律 的
inv ent
ost en
整 合</w>
比以往任何时候 都
in aug
意 外</w>
中东 地区的
是 完全
美 国家庭
zeal and</w>
实现 其
propos ing</w>
heigh tened</w>
某些 人
aff air</w>
焦 点</w>
seas on</w>
克 劳
领袖 的
已 然
rig id</w>
ri ots</w>
wher ever</w>
stop ping</w>
示 </w>
ministr ies</w>
之 道
特 定的
oblig ed</w>
indefin itely</w>
sti c
s ke
热 情</w>
讽刺 的是</w>
ri vers</w>
占 总
暴力 和
多少 </w>
addres ses</w>
酝 酿
幕 后
organ ic</w>
fu kus
6 7</w>
ag eous</w>
世 卫
短 视
ero de</w>
成为 现实</w>
i i
零 利率
将 无法
援 引
ass ist</w>
非洲 大陆
更深 层次
备 受
债务 重组
孩子 的
min utes</w>
中央 银行的
销 </w>
is i</w>
beau ti
带 领
流离失 所</w>
milit ant</w>
必须 要
和 中
vo ter</w>
国 籍
ach ev</w>
最 大</w>
sh al
基金 的
是 多么
fulf illed</w>
福 音
残 疾
一 带一
最后 一个
韩 国的
有 任何
自己 在
人们 普遍
prior itiz
convers ation</w>
波 </w>
向 美国
escal ating</w>
可 贸易
极 具
的 受
军队 的
i ance</w>
ath ens</w>
评 论</w>
深 思
剥 削
的 例子</w>
exemp lified</w>
却 被
pill ars</w>
这 两大
¸ </w>
伊 斯坦
scr ip
分析 师
hu go</w>
思想 的
职责 </w>
子 和
un limited</w>
histor ian</w>
me ters</w>
000 万
回 购
public- private</w>
生物 多样性
残 忍
ero ded</w>
进程 的
poss ess</w>
多 于
impe di
st ation</w>
r ide</w>
达成 </w>
地 面
恶 </w>
没 了
当今 的
十 八
为首 的
ran k</w>
年 代
实现 的</w>
ang lo-
欧盟 在
rever sible</w>
他们 都
送 到
货币 贬值
偶 尔
点 燃
的信 心
特朗普 政府
鲜 有
选 区
数据 的
含 义
返 回
梦 想</w>
可持续发展 目标</w>
record -
offic es</w>
冲突 和
spe aker</w>
一种 </w>
techno crats</w>
disrup t</w>
战斗 </w>
终 止
保护 的
选举 结果
象征 </w>
ap olog
之间 存在
dev ise</w>
judg ing</w>
surv ived</w>
激烈 </w>
还有 待
lin king</w>
背景 </w>
em per
fo stering</w>
发自 剑桥</w>
顶 级
中 之
合法 性的
竞选 活动
strugg led</w>
创新 性
道 义
美国 与
所 做
亿 万
出口 国
hau l</w>
guerr ill
绝非 易事</w>
者 是
gaul le</w>
路 径</w>
£ </w>
间 谍
总统 奥巴马
quot as</w>
国大 党
8 年的
西 </w>
在未来 几年
这就是 为什么
correc tly</w>
弥 合
con ve
ar en</w>
en shr
lobb ying</w>
早些 时候</w>
这些 都是
si pr
庸 置
2 ,000
quanti ty</w>
psych i
地区 和
以 外</w>
广 大
br ight</w>
依据 </w>
令人瞩 目的
社会 和政治
enti ous</w>
198 2</w>
借 口
游 行</w>
支付 </w>
摩尔多 瓦
inter rup
分 崩
还是 在
挑 起
re b
脊髓 灰
stal g
基本 面
特朗普 在
到 处
sw ap</w>
philos opher</w>
的基础 上</w>
次 级
敌 意
偏 向
bre ast</w>
偏 见</w>
遍 布
仅 次于
难民 的
thin k
198 1</w>
196 0s</w>
并 将其
s ick</w>
借 钱
经历 </w>
只 是在
病 例
sel ected</w>
密 </w>
就是 在
包 装
z en</w>
美国 及其
defe ating</w>
的 工作</w>
e b
背 负
co ff
动 于
ambigu ous</w>
pre gn
可能 比
warran ted</w>
有 没有
r m
ene tr
源泉 </w>
结 婚
no stalg
ten tion</w>
齐 聚
有 时候
排放 量
br ca
医 生</w>
发达经济体 的
军事 力量
驾 驶
脊髓灰 质
脊髓灰质 炎
国际 原子能
儿 麻痹
maastric ht</w>
毕业 生
分崩 离
11 月</w>
截 止
bo oms</w>
当 我
201 4年</w>
苏联 的
砍 伐
情形 </w>
需要 的是
indiffer ence</w>
self- defense</w>
姆 斯
这种 做法
非 国家
大西洋 两岸
og en
cl arity</w>
s pl
的 报告
强 国</w>
以色列 总理
州 长
wil l
答案 是
inf ection</w>
乐 于
将 以
理 性</w>
以 换取
d aughter</w>
是 时候
liter acy</w>
susc ep
耻 辱
night mare</w>
不 允许
inher ently</w>
并不 像
spo t</w>
pic ked</w>
调 节
driv es</w>
fukus hima</w>
聚 焦
- sharing</w>
rus h</w>
忧 心
弗拉 基
紧密 的
behavi oral</w>
遗 产</w>
mor ally</w>
各种 各
资产负债表 </w>
表达 了
在 该
杀 人
concentr ate</w>
在200 7年
卷土重 来</w>
end ra</w>
困难 的</w>
日本 在
推进 </w>
ner v
th in</w>
ar ises</w>
回报 率
可持续 性</w>
协 作
底 层
working- age</w>
生活 水平</w>
心 协
如果 它
entrepreneur ial</w>
引 领
em ulate</w>
legisl ators</w>
重 返
ak in</w>
失去 的
kenne th</w>
g orb
mon ti</w>
它 应该
b eng
are t</w>
un equal</w>
s now
倒闭 </w>
巴西 的
ol ing</w>
所有 人</w>
c ents</w>
宣传 </w>
st y</w>
less ness</w>
incre mental</w>
流 失
此外 还有
实现这一 目标
dismis s</w>
潘 基
floo ding</w>
民众 对
遗 留
仍然 在
哈佛 大学
诽 谤
女 儿
民族 主义者
劳动力 市场的
conven i
在 他的
ren zi</w>
歧 视</w>
lim itations</w>
这一 政策
最终 会
十分 重要</w>
温和 派
prev ents</w>
泛 滥
sil ver</w>
个 别
vide o</w>
en de
公共 投资
年 均
cost- effective</w>
外 长
摆脱 了
in er
总 共
选民 们
卡 斯特
1. 8</w>
emphasi zes</w>
activ ism</w>
mo tives</w>
适 用</w>
的 英国
jour ney</w>
动于 衷
hi j
分崩离 析
alter ing</w>
orthodo xy</w>
上 市
成本 和
state hood</w>
中国 正在
exam ined</w>
富 </w>
政 变</w>
sub- prime</w>
fore front</w>
12 月</w>
形 势</w>
成立 的
特朗普 和
vig il
k or
他们 自己
提供 </w>
少数 民族
l est</w>
mo tion</w>
三 国
的 压力</w>
产 出</w>
impl ication</w>
只有 当
和 伊朗
dis cer
con firm</w>
ma ster
金 属
没有 </w>
灵活 的
restor ation</w>
掩 饰
t sipr
succ essive</w>
意味着 什么</w>
ad here</w>
deterior ating</w>
的 方案</w>
on ym
论坛 </w>
让 世界
gr ass
he ight</w>
star t-
public ation</w>
承诺 要
helicop ter</w>
dispos al</w>
多元 化
高 质量
tre es</w>
cyn ical</w>
直 觉
venezuel an</w>
甚至 可以
的 时代</w>
覆 辙</w>
tro p
并 通过
过渡 </w>
亚努科 维奇
政治 制度
欧洲 各国
crack down</w>
第三 次
动 乱
descr ip
种族 隔离
过 早
但 也有
实质 性
sup press</w>
而 代
容 </w>
类 型
会 继续
subst ance</w>
s ab
inter view</w>
难民 危机
j c
萎 缩
在 西方
doc uments</w>
deal t</w>
q </w>
结束 了</w>
鼓舞 </w>
推 出了
mor gan</w>
慢 </w>
显 现
营 </w>
ma il</w>
萨科 奇
poc kets</w>
re mind</w>
萨达 姆</w>
k gb</w>
tion ality</w>
re alism</w>
篇 文章
势 头</w>
m entioned</w>
bal lo
on a</w>
主要 由
页岩 气
流 程
co al-
financial- market</w>
的 要求</w>
priv ati
不 利</w>
dr </w>
ne pal</w>
l an</w>
stagger ing</w>
ed- country</w>
支柱 </w>
一段 时间
团 </w>
neu ro
wat er-
dig it</w>
inst ance</w>
健 全
赞 同
想象 的
线 的
定 位
外交 </w>
普遍 的
不可避免 的</w>
wou ldn</w>
可能 被
scor ed</w>
on ce-
belar us</w>
他 也
escal ation</w>
emphasi zing</w>
而 随着
估 值
8 -
commun icate</w>
的 措施</w>
reg ards</w>
l ays</w>
hos ni</w>
多 名
att acking</w>
工作 岗位</w>
em power</w>
war saw</w>
in e-
独 特的
ben e
朴 槿
朴槿 惠
不 合
slu ggish</w>
marg aret</w>
的 要求
gold man</w>
it o
超 出了
道 德</w>
穿 越
支出 和
7 00</w>
str ains</w>
升 息
integr al</w>
的经济 和
提出了 一个
的 承诺
承担 起
两 项
认真 对待
意味着 </w>
更 进一步
c ite</w>
intensi fying</w>
k el
一 张
和 其它
混 淆
在200 6年
教 会
dest iny</w>
受 影响
dis sent</w>
脂 肪
ab u
迄今 为止</w>
驱 使
已经 过去
excell ent</w>
fir ing</w>
只 需
writ e-
约 有
chap ter</w>
立法 者
tsipr as</w>
201 3年</w>
exp ects</w>
给 出了
break up</w>
center- right</w>
带 </w>
e te</w>
manag eable</w>
正常 化
常 见的
举 动</w>
l ap
普 世
这 也许
预算 赤字</w>
an tim
ou </w>
记 得
差 别</w>
任 由
i el</w>
简单 地
利息 </w>
约 瑟
激 增</w>
供应 商
ar rog
50 ,000</w>
贝 鲁
insist ence</w>
兴 起</w>
迁 移
确 切
urg ed</w>
阵 线</w>
stalem ate</w>
重要 性的
author itarianism</w>
多 年</w>
intellig ent</w>
政 体
解决 办法
又 一个
里程 碑
pro xim
和 英国
counter part</w>
reach es</w>
封 锁
á nam
人 听
exagger ated</w>
pass age</w>
很少 有
re bel</w>
fe ar
老 牌
麦 克
smu gg
信 用</w>
会 是
安 慰
导弹 </w>
自动 化
dis agreement</w>
过 时
预防 性
一个 由
据 称
温 和</w>
掌 权</w>
克 罗
plumme ted</w>
冷 漠
试验 </w>
更 快</w>
态 势
更 有效的
人 心的
guant ánam
spe ar
创造 性
appreci ated</w>
es p
也 非常
indirec tly</w>
dest ination</w>
避 税
是 无
服务 于
后 者的
一 百万
calcul ated</w>
si us</w>
cel sius</w>
而 尽管
物 流
ran ked</w>
大选 中
tot ally</w>
它 也
a wi
gdp 增长</w>
在此 期间</w>
的 水
冒 着
淡 </w>
provin cial</w>
越 大</w>
渺 茫
ti f
far c</w>
emplo y</w>
在 当前
它 需要
合理 的</w>
mitig ation</w>
amaz on</w>
果真如此 的话</w>
衰退 的
batt les</w>
上加 霜
囤 积
maneu ver</w>
决定 性的
gorb achev</w>
里 夫
与此 同时
令人 难以
cir cles</w>
戈尔 巴
蒙 蒂
appar at
小 儿麻痹
能 产生
东 方
与 发展
得 不
的一 小
su spec
sign aled</w>
in corpor
维也 纳
拉 登
彻底 的
reform ers</w>
时间 和
相 结合</w>
贫困 人口
激 增
不可避免 的
恐 吓
j az
账户 </w>
财富 和
in justice</w>
艾滋病 </w>
他 说
comm on
sel ect</w>
减 </w>
大相径庭 </w>
欧元 危机
ma inten
强调 了
降 到
紧迫 </w>
进 来</w>
gi ants</w>
bo j</w>
新 任
的 努力</w>
已经 是
6 4</w>
ten -
拥 护
新兴市场 国家
ex pose</w>
阐 述
头 的
em u</w>
他们 自己的
dur able</w>
大部分 人
ca str
而 是在
id ay</w>
scot tish</w>
streng ths</w>
的 角色
market- oriented</w>
冰 川
christ mas</w>
198 6</w>
对 俄罗斯
cour ses</w>
品 牌
关键 作用</w>
accommod ate</w>
un intended</w>
无 动于衷
多 久</w>
ur ge</w>
un resolved</w>
hindu </w>
知识 的
成熟 的
欧元区 外围
既 有
手 中的
ob sol
ar ding</w>
r ab
地 在
冒险 </w>
沙 漠
眉 睫
petro le
枯 竭
gn p</w>
exerc ises</w>
七 年
高等 教育
w ishes</w>
under pin</w>
re tail
得 主
预 先
弗拉基 米尔</w>
ap point</w>
民主 国家的
新兴 市场的
tr action</w>
赚 取
通过 将
动荡 的
艰难 </w>
swe pt</w>
失 误
突 出</w>
gra vity</w>
促 成了
afflu ent</w>
社会 安全
telecommun ications</w>
达尔 富
pres ents</w>
之 举</w>
ne ar
充 其
ordin arily</w>
spec ter</w>
car ib
ecu ador</w>
scar city</w>
attr action</w>
clear er</w>
evalu ate</w>
17 0
occa si
in j
残 暴
请 求
en act</w>
而且 在
reinv igor
ass y</w>
intern ally</w>
电 池
mainten ance</w>
ä u
6 6</w>
谋 求
ex or
苏联 解体
ir rig
制造 了
gasol ine</w>
am mar</w>
和 市场
feed back</w>
在 选举
极 少数
基础设施 和
drin king</w>
美国和 欧盟
规模 和
本 已
pre ference</w>
站 </w>
radic als</w>
theore tical</w>
相当 大的
cros s
c y</w>
的经济 学
也 正
程度 上</w>
也不 应该
能够 以
geograph y</w>
远 见
in tru
这样 的</w>
cont entious</w>
as sured</w>
任 期</w>
随 处
成为 可能</w>
guantánam o</w>
对 他们的
ar ian</w>
的 数量
克 森
5 0年代
mandel a</w>
戈尔巴 乔
这 只是
方面 都
pen alty</w>
g lu
olig arch
cal am
意 图</w>
也有 助于
的一 年</w>
花 </w>
any time</w>
格 拉
指 令
mone y-
trou bling</w>
com promises</w>
imag ination</w>
tyr ann
私人 投资
br igh
犯 下
经济 活动
在 眉睫
迫 在眉睫
过程 的
现 金</w>
越南 </w>
并 使
kill ings</w>
雪 上加霜
渴 望</w>
swe eping</w>
diagnos tic</w>
st res
行动 起来</w>
tou ch</w>
前 瞻
exce eded</w>
gr at
对 许多
resp ects</w>
似乎 在
end ured</w>
„ </w>
p apers</w>
insolv ent</w>
价格 上涨
阿拉法 特
ble ak</w>
syri ans</w>
委内瑞 拉</w>
he ed</w>
摄 氏
lin ed</w>
bor is</w>
多样 性</w>
钓 鱼
高 峰
迈 克尔</w>
fe et</w>
rejec ting</w>
bur dened</w>
从 200
ignor es</w>
viol ation</w>
200 7年</w>
ide ally</w>
软 弱
并 确保
或许 可以
西方 人
advis ed</w>
植 根于
询 问
亚 历
casu alties</w>
bankrup t</w>
6 0年
没有 哪
是 与
这一 决定
share holder</w>
is ite</w>
约瑟 夫</w>
拒绝 </w>
启动 了
确 信
伦 齐
成员 的
6 3</w>
它 会
加勒 比
治 下的
解放 军
fall out</w>
f ant
最 不
元素 </w>
es -based</w>
债务 危机
中 介
pat ents</w>
这 套
ver ies</w>
瑞典 </w>
人 人
这场 战争
asi -
紧缩 政策
ti ge</w>
固 然
ul um</w>
repe al</w>
也 很
dis agreements</w>
穆斯林 世界
效率 和
imp ul
峰会 上</w>
4 6</w>
bel ong</w>
obam ac
隐 性
亏 损
des ired</w>
辅 之以
ti e</w>
另 一位
的 概念
can ad
可持续 的
centr ist</w>
掀 起
剩 下的
n ie
的 力量</w>
比 率</w>
犹太 人</w>
服务 提供
尔 斯</w>
pol es</w>
叙利亚 内战
以 实现
施 罗德
独立 性</w>
any way</w>
struc tured</w>
恐怖 组织
这些 因素
cl a
disco ver</w>
全球 经济</w>
全球 增长
之 内</w>
mater nal</w>
传染 性
的可能 </w>
ukrain ians</w>
4 9</w>
最后 一
参与 到
ati </w>
obamac are</w>
制 约</w>
emb assy</w>
国 企
感 谢
mobil ized</w>
revers ing</w>
解决 问题的
剧 </w>
elu sive</w>
初 的
virtu e</w>
完美 </w>
osten sibly</w>
renew al</w>
的全球 性
val id</w>
的经济 体</w>
结 成
存 的
strateg ically</w>
ku wait</w>
jo bl
的 儿童
干 </w>
联系 在一起</w>
a than</w>
某些 国家
查 德</w>
巧 妙
ab str
拉 加
这 部
al ign</w>
ax is</w>
超级 大国
commit ting</w>
labor- intensive</w>
seg ments</w>
19 14</w>
flo or</w>
和 他
首席执行 官
的 资产
鸿 沟
surr ender</w>
该 报告
b jp</w>
cur tail
commun ists</w>
三 次
不平等 性的
将 是一个
susp ended</w>
经济学 的
几 次
博弈 </w>
incl ined</w>
sch äu
ra j
今 日
countr y
对 世界
俄罗斯 在
反 常
不 无
bloc k
最 优
的 民众
了 自己的
s f
bal tic</w>
zero- sum</w>
不平等 性</w>
肺 结核
6 .5</w>
schäu ble</w>
ber nie</w>
法 定
世界其他 地区
显 现</w>
共同 体
可能 出现
anch or</w>
power ment</w>
患 者的
occasi onally</w>
奴 隶
莱 坞
政府 所
as se</w>
重建 </w>
dictator ships</w>
in struc
存在 的</w>
insolv ency</w>
lefti st</w>
刺激 计划
归 属
德 黑
consum ing</w>
南 美
ji had</w>
inter act</w>
bra ve</w>
em y</w>
武 力</w>
pro position</w>
马 歇尔
发表 了
办公室 </w>
一 股
b n
lib yan</w>
调 停
经济增长 和
qu asi-
不 是</w>
看到 的
替代 方案</w>
就 意味着
subsidi aries</w>
而且 还
花 旗
understand ably</w>
re building</w>
specul ators</w>
罗 塞
imperf ect</w>
感 兴趣</w>
as y</w>
cu ban</w>
当 下
石油 的
fr ic
dr ama</w>
必须 以
习惯 </w>
中国 将
同 僚
齐 普
aw a</w>
这并不是 说
发 行的
负面 影响</w>
极 高的
加 利亚
provo ke</w>
ut terly</w>
这么 做</w>
ren a
某种 形式的
wor ld-
mo vie</w>
occup y</w>
荷兰 </w>
al ban
rous se
政治 领袖
pers onally</w>
bran ch</w>
食品 和
崩盘 </w>
众 多的
杠杆 </w>
阻 力</w>
在200 5年
的 持续
se ven
多德 -
tigh ter</w>
主 题
事 物
ad minist
ac ious</w>
集中 于
debt- to-gdp</w>
现在 就
马 克</w>
高昂 </w>
l as</w>
rob ial</w>
contribu tes</w>
债权 国
pre jud
或者 说
af raid</w>
y wood</w>
out set</w>
私 下
么 </w>
第三 大
倒 塌
科 </w>
er son</w>
cont ex
终 身
初 始
ro oms</w>
notic ed</w>
dr y</w>
就是 如此</w>
不 啻
beauti ful</w>
波 士
em powerment</w>
手 无
的 权力</w>
hol es</w>
良 机</w>
bar bar
curr ic
carib bean</w>
mag az
咖 啡
tr iv
lo cal-
li u</w>
洪 水
t ended</w>
也就是 说
ti zation</w>
g i</w>
为了 避免
偿 债
令人 印象
所 说</w>
波斯 湾
re ap</w>
moder ates</w>
征 税</w>
克 格
意识 </w>
胜 任
sal aries</w>
托 马斯</w>
据 此
的领导 下</w>
尽 力
associ ations</w>
g lim
做出 选择</w>
500 万
的 城市
物 质</w>
dist ressed</w>
世界 银行的
collap sing</w>
sec tion</w>
是否 真的
原教旨 主义
雷 斯
ath le
con sists</w>
电影 </w>
伤 亡
的 预测
罹 患
为 欧洲
既 是
aff ili
单一 货币
sun ni
chin a-
en sion</w>
评级 机构
记 者</w>
多哈 回合
散 </w>
ust omed</w>
peace keeping</w>
f ly</w>
利益 相关
distr icts</w>
为 一个
complem entary</w>
的时候 了</w>
cum ulative</w>
依然 在
th ai</w>
但 大部分
规范 </w>
奇 迹
bin y
女 权
相似 的
re y</w>
trou bles</w>
acc ustomed</w>
位 居
stimul ating</w>
赢 家</w>
jurisdic tion</w>
讨论 的
writ er</w>
墨西哥 的
达成 协议</w>
改 进</w>
六 个月
美 日
人的 生命</w>
answ ered</w>
bes ides</w>
包含 了
延 缓
欧 佩
流行 病
地 点
coll ected</w>
潘基 文
一 笔
ag er</w>
凸显 了
主 办
p is
权 益
对 比</w>
打 败
f led
cau tion</w>
大 声
on set</w>
沉默 </w>
su pr
极端 </w>
幽 灵
fat al</w>
国内 外
fr ame</w>
i ents</w>
evid ently</w>
应该 成为
伪 善
e go
减 记
marg ins</w>
bo ys</w>
发自 伦敦</w>
t one</w>
r ent</w>
经济 发展</w>
bur den
联系 起来</w>
的全球 化
而 欧盟
propos es</w>
河 </w>
emp t</w>
business men</w>
商 人
对 其他
castr o</w>
re alizing</w>
卡 拉
nati ve</w>
moldo va</w>
任何 人
accur ately</w>
绝 不会
颇 有
n ad
re unification</w>
moham mad</w>
的 事</w>
最 贫穷
orb án</w>
如果 这些
distor ted</w>
本身 的
ap pointment</w>
inter actions</w>
当 中
负 有
美国 也
chec ked</w>
率 和
单一 市场
时 常
和 公司
先 锋
出口 导向
延 迟
远 高于
筛 查
这个 国家的
信仰 </w>
与其 说
thr iving</w>
commission er</w>
low ered</w>
扩大 到
des po
热 烈
肺 炎
celebr ate</w>
预计 将
f ty</w>
华 沙
如果 欧洲
car ri
t t</w>
re per
的一 位
从这个 角度讲</w>
智 利</w>
可能 让
他们 已经
血 液
克格 勃
党 内
医疗 卫生
balance- of-
这 方面
北约 的
所 言</w>
pragm atism</w>
compel led</w>
报复 </w>
尊严 </w>
stor ms</w>
over hang</w>
得到 解决</w>
教 学
ur ation</w>
预 想
daw n</w>
连 任</w>
absur d</w>
e ffic
explan ations</w>
志 愿
pl as
un realistic</w>
197 1</w>
容 克
启 动</w>
奥巴马 </w>
了解 </w>
外汇储备 </w>
ib ed</w>
震惊 </w>
贸易 谈判
名 叫
奇 迹</w>
b undes
oper ates</w>
准 入
person ality</w>
层面 上
本 周
advoc ating</w>
if e</w>
成百上 千万
恶性 循环</w>
remin ded</w>
ast on
loy al</w>
rev it
任 职
不 大</w>
国民 生产总值
适得其反 </w>
mil e</w>
共和 国的
think able</w>
竞 赛</w>
这一 新
南 北
plo t</w>
k ac
硬 着陆
塞 拉
专家 们
零 和
willi am</w>
抉 择
拉 低
巴黎 气候
悲 惨
这 三个
k it
journ alist</w>
怎样 的
budd h
所 引发的
多 米
澄 清
国家 利益
旧 的
岁 以下
gr id</w>
观点 的
一 百
stric tly</w>
cus h
fs b</w>
必须 与
维 系
每 个国家
radi ation</w>
替 换
获得 </w>
asser tive</w>
理 智
而 有
的 非洲
j a
六 个
赖 以
thin kers</w>
ch ol
wat ched</w>
peac efully</w>
应该 将
高 盛
具体 而言</w>
也 已
呼 吸
候选 人的
手段 来
t ments</w>
199 4年
并 与
avo id
mar x
d ering</w>
tu m</w>
swit ch</w>
发 的
he aring</w>
anticip ate</w>
gre ed</w>
浮 动
describ es</w>
领导 作用</w>
civil izations</w>
warr en</w>
aliz es</w>
th war
码 </w>
敢 于
有利 可
在 那些
尽 量
k ho
要 说
苦 苦
海 </w>
hand led</w>
cy pri
o y
develop ing-
专业 人士
9月11 日
fundament alism</w>
sh at
强烈 </w>
必须 通过
recip ients</w>
pe as
天 安
路 线</w>
trop ical</w>
consum ed</w>
梅德韦 杰夫
归 结
paradox ically</w>
降低 到
补充 </w>
馆 </w>
可以 提供
fa ke</w>
伐 克
wor th
meas u
hom eland</w>
心 态
comm ents</w>
证 实</w>
low -</w>
多 万
shou ldn</w>
勉 强
alleg ations</w>
broad band</w>
exhau sted</w>
的一 年
prec eded</w>
很难 想象
潜 力的
敌 </w>
等 其他
面对 着
此 前的
广 义
神 秘
庞 大</w>
的 时期</w>
bl ue</w>
v oc
一样 的
生物 学
相 去
在 政府
hun garian</w>
posi tioned</w>
modi fied</w>
corporate- tax</w>
credit -
彰 显
创造 的
河 流
不 具备
智 力
只有 一个
出 一个
ex </w>
bl in
中国 经济的
en sures</w>
我们 会
人听 闻
琳 </w>
突 出
head quarters</w>
数十 万
但 人们
ta o</w>
im pa
外 资
已 久的
nuclear- armed</w>
只有 通过
al arm</w>
regul ating</w>
持 有人
提高 利率</w>
文 件</w>
concep ts</w>
gü len</w>
ma ur
问题 和
强硬 派
乳 腺癌
ro man</w>
first- century</w>
twenty- first-century</w>
这个 词
中 叶
six th</w>
计划 和
导弹 防御
的 局面</w>
星 球
mu ammar</w>
ottom an</w>
re acted</w>
先 例
pl ag
正好 相反</w>
re- election</w>
都 与
问题在于 </w>
doc tor</w>
沿 着
侯赛 因
over l
征 服
ic u
co in</w>
深 </w>
min e</w>
under estimate</w>
追求 </w>
技能 和
回 </w>
那么 它
齐普 拉斯
p is</w>
巴 罗
就业 机会</w>
挤 兑
kac z
her it
viol ated</w>
精英 们
mul ticul
金融 机构</w>
乌干 达
publ ics</w>
appro ch
three- quarters</w>
nomine e</w>
遥 远的
em manuel</w>
很 明显</w>
演 说
一 句
r approch
po is
先决 条件</w>
战 役
之间的 关系</w>
biny amin</w>
的 统治
w an
合作 和
法 兰克
可 怜
特 权
宪 政
suspec ted</w>
国 土
换 言之</w>
w are</w>
复苏 的
scen es</w>
增长 速度
hear ts</w>
剥夺 了
brid ges</w>
ad am</w>
布什 的
的政治 </w>
取 而代
仇恨 </w>
没 错</w>
他们 需要
需求 和
om t</w>
at -
暴露 了
变 异
必须 是
u prising</w>
存 量
在 为
能 给
k in</w>
让 步
的 变化
att le</w>
不断 增长的
巨 量
contradic tory</w>
失灵 </w>
spi ke</w>
安 置
har ry</w>
减 弱
四 大
t s
视 频
out sourcing</w>
ven s</w>
充其 量
t abo
政治家 们
赤 裸
中东 欧
达到 </w>
卡斯特 罗
li sted</w>
maxim um</w>
appro ve</w>
燃 煤
生 效</w>
jun c
ligh ts</w>
之 内
举行 了
wor ris
市 政
capital- account</w>
节 奏
参与 者</w>
将 不得不
comp ounded</w>
vacc ination</w>
ay a</w>
herit age</w>
199 0年代
的 平均
委 托
每 一次
被 允许
说 到底</w>
制定 </w>
sh i</w>
z ai</w>
av iv</w>
ach ing</w>
recip ient</w>
改 良
reve aling</w>
um b</w>
阿尔 巴
力 地
教 条
rapproch ement</w>
含 义</w>
tal ented</w>
diver gence</w>
g il
per sists</w>
的 直接
di an</w>
罗 兴
dra f
di ous</w>
bl at
de ut
repres sive</w>
相提并 论</w>
半 数
30 ,000</w>
边境 </w>
一 只
po sts</w>
早 在
c f
qu e
公司 在
pessim ism</w>
的 增加
达尔 文
g cc</w>
gradu ate</w>
和 俄罗斯
风险 和
改善 了
was n</w>
1. 1</w>
it ual</w>
甚至 比
tim ely</w>
re bound</w>
霸 权</w>
a g</w>
scand als</w>
在 长期
hab i</w>
经 通胀
w alls</w>
construc ted</w>
对 英国
客户 </w>
om er
k ak
rememb ered</w>
接 下来的
压 抑
那 次
著 </w>
禁 令
端 的
less er</w>
打破 了
爆发 了
ir ony</w>
arab -
pro cu
一直 以来
accum ulate</w>
我们 如何
f .</w>
incid ents</w>
ed it
人工 智能
奥斯 曼
稳定 性</w>
和 以色列
面对 的
攫 取
更多 的人
un thinkable</w>
否认 </w>
执 政党
这些 机构
情况 的
et c</w>
f s</w>
yiel ding</w>
定 向
ab le-
多德- 弗
micro -
j ar
link ages</w>
mis ery</w>
dimen sions</w>
国家 政府
界 的
人 对
罗兴 亚
4 ,
en u
it ement</w>
迪 拜
rival ry</w>
将 产生
很 久
服 装
演 变成
flor ida</w>
连 贯
suspic ious</w>
在 那里
上 而
可能 带来
文 明的
外 债
tor n</w>
cor relation</w>
sw aps</w>
种族 </w>
h ed
restric ting</w>
保守 主义
于 </w>
赢 家
运转 </w>
讲 述
哥 </w>
摧毁 了
mitig ating</w>
人权 和
事实 证明
罗 格
但是 如果
美国 已经
ra il</w>
跻 身
18 9
甚 远</w>
compl aints</w>
叙利亚 总统巴沙尔</w>
cat ch
坚 定的
繁荣 和
低估 </w>
system atically</w>
也 并不
措施 来
viol ate</w>
以色列和 巴勒斯坦
relent less</w>
作 战
世界卫生 组织
岌 岌
emper or</w>
crow ded</w>
卓 越
vis iting</w>
就 一直
offic er</w>
in form
拒绝 承认
ital ians</w>
opin ions</w>
exclu ding</w>
特 权</w>
大 获
surr ounded</w>
也不 例外</w>
八 年
特拉 维
威胁 要
meas uring</w>
mat ched</w>
废 墟
更 别
frank fur
luc ky</w>
有 意义
as us</w>
pled ges</w>
一 倍</w>
借贷 </w>
相反 的
成 长</w>
n it
主要 是因为
rousse ff</w>
也 十分
organ izing</w>
看作 是
accus ations</w>
prescrip tion</w>
c arm
achiev able</w>
comm emor
听 证
对 日本
似乎 正在
人们 </w>
错误 地
之 旅
获 益
st ars</w>
就业 机会
能够 为
大体 上
gu iding</w>
能 得到
ori entation</w>
he ated</w>
货 物
螺 旋
选 出
国 和
没 完
alcohol </w>
ti bet
的 危机
天然气 </w>
ho stage</w>
可 危
财政 赤字</w>
perpetr ators</w>
溢 价
正在 进行
教 </w>
事务 的
约旦 </w>
商品 的
站 出来
保 加利亚
com e-
less -
cr on
宪法 法院
弹 道
公 认
金 氏
mit t</w>
趋 同
in car
研究 表明
organ isms</w>
tribun al</w>
加 起来
既得 利益
不惜 一切
在200 1年
destabil ize</w>
中国 共产党
印 刷
迎 合
cer em
戈尔巴乔 夫
的一个 重要
多大 程度上
con du
纠纷 </w>
分析 家
次 贷
收 拾
barri er</w>
decentr alized</w>
民粹 主义的
z o
泡沫 的
宣 誓
第一 大
加入 </w>
的信 用
检察 官
流动 性的
new com
techn ically</w>
ic ated</w>
prer equ
sent ence</w>
触 及
portfol ios</w>
的 比例
岌岌 可危
j ail</w>
ques tioned</w>
spe aks</w>
my ster
班 </w>
bundes bank</w>
d .</w>
私有 化</w>
警惕 </w>
broad en</w>
去杠杆 化
血 </w>
的信 任
com prises</w>
acqu ies
constr aint</w>
声 誉
究竟 是
先进 的
them e</w>
加 索
ve ge
清晰 </w>
将 如何
或 多
连 串
但是 这
隐 瞒
arti cles</w>
把 这些
不仅 限于
推 特
mil an</w>
曼 德拉
肯定 的</w>
emb le</w>
bo ston</w>
impe ding</w>
太大 而不能
实现 这些
一半 的
stan do
几 年的
confer ences</w>
f ati
的 另一个
逆 差
柏林 墙
其 领导人
cont am
引 向
vie w
经验 的
chann eled</w>
dis orders</w>
足 的
前 就
moham med</w>
forec asting</w>
向 来
眼 光
工作 和
speci alized</w>
这种 方式
打 消
fan ati
任务 是
泄 漏
的 反对
人们 可以
est er
预期 的
大 公司
当地 的
在 联合国
an onym
凌 驾
起 点</w>
materi alize</w>
低 下的
施 压
re signed</w>
步伐 </w>
fru it</w>
靠拢 </w>
背景 下
com </w>
me dy</w>
其他 的
labor- force</w>
波罗 的海
许 诺
fe t
华盛顿 特
gene tically</w>
人 体
不 平衡</w>
vis its</w>
7 月</w>
dis placement</w>
偿付 </w>
保 罗
中间 派
ten se</w>
worris ome</w>
conceiv able</w>
m ir</w>
这 将是
发生 过
在 短期内
辞 职
effic acy</w>
aw at
ass ed</w>
占 比
战争 和
交通 </w>
ver t</w>
赫 </w>
ball istic</w>
ass em
理所 当然
organiz ational</w>
不断 增加</w>
较 少
second- largest</w>
流 失</w>
j ac
obsol ete</w>
经济 改革
dem agog
agre eing</w>
d ay
审查 </w>
alex ander</w>
修 补
维持 了
expor ter</w>
star tu
践 踏
不可避免 </w>
奥 塞
非洲 和
做 到</w>
深 感
pow ering</w>
der ived</w>
中产阶级 </w>
部 族
低 廉
技术 上
人们 在
disproportion ately</w>
将 受到
3 ,000</w>
包括 在
又 会
exce eding</w>
降 临
但 该
可靠 </w>
nation al-
193 0年代
dir ty</w>
rebel lion</w>
夫 妇
petrole um</w>
t ted</w>
ign ment</w>
18 0
挣扎 </w>
la g</w>
上 风</w>
» </w>
光 靠
ear ning</w>
fron t-
一个 国家的
ti tle</w>
物理 学
更 强的
re medy</w>
作 物</w>
遗 忘
特 点</w>
199 2年
il li
夏 天</w>
口 头
独立 性
far ms</w>
ev asion</w>
popul ated</w>
compl ained</w>
hen ko</w>
rati fy</w>
为 世界
te h
c ig
版 本
ow e</w>
在 上述
当 权
过 往
sh ame</w>
saf ely</w>
资本外 逃
发动 了
通常 会
的 1</w>
幻 觉</w>
ob tained</w>
其 国内
care ers</w>
在201 6年
这种 方法
ad mit
p o</w>
blue print</w>
举例 来讲</w>
re actors</w>
人们 认为
可信 的
办 </w>
olymp ics</w>
不断 的
tax ing</w>
度 和
反 馈
实 行的
让 欧洲
管 齐
发达经济体 </w>
控制 了
力 度</w>
pas sive</w>
expl aining</w>
5 2</w>
under taking</w>
5 9</w>
trip le</w>
anx ious</w>
imp asse</w>
凌驾 于
货币 联盟的
保守 的
牺牲 </w>
在 法国
副 作用</w>
潮 流
也 不再
很 长的
tr ies</w>
的人道 主义
不 去
房地产 市场
倾 斜
do omed</w>
太 空
proxim ity</w>
influ x</w>
话 语
is en
经历 过
耗 尽
斯 诺
ensu ing</w>
es a</w>
是 一次
菲 </w>
马 里</w>
ex ec
宽松 </w>
journ alism</w>
仲 裁
de tention</w>
her o</w>
每个人 都
先 发
是 被
带 给
ol iber
per mits</w>
少 年
南 极
从 美国
is co</w>
扣 </w>
不论 是
斗争 的
3 6
appe aring</w>
买 单</w>
阴 影</w>
离 岸
gun s</w>
核 子
地带 </w>
枢 纽
许多人 认为
之一 的
execu ted</w>
ia ea</w>
定 在
explo iting</w>
在 以色列
有 待
国民 收入
死刑 </w>
引 出了
一 国的
轻易 地
shar if</w>
lin ing</w>
prof oundly</w>
che ap
合作伙伴 </w>
事 的
7 .5</w>
侮 辱
呈现 出
v ent</w>
s or</w>
pres tige</w>
geopoliti cs</w>
in fer
由此 带来的
在 伊朗
su gar</w>
司 机
截 至
mirr or</w>
敌 意</w>
un willingness</w>
modern ize</w>
个 成员国
pers ons</w>
explo sive</w>
兼 并
出 任
自 满
感 的
rol ling</w>
公共 政策
拨 款
t we
evol ve</w>
客 观
admit tedly</w>
发生 变化</w>
推翻 了
赫 特
fix ing</w>
该 如何
标 题
stor es</w>
可 预见的
无 条件
pic king</w>
qu o
0. 7</w>
盯 住
t ent
capac ities</w>
成为 全球
赤裸 裸
复 燃
种 子
公 立
的人 才
有效 的</w>
参 考
tel eph
话 题</w>
ag ers</w>
驱 动</w>
par am
国 外</w>
for th
可能 无法
subsidi zed</w>
西 非
judg ments</w>
fle eing</w>
fl ag
的 国家的
伊 始
explor ation</w>
analog y</w>
pro min
取 </w>
亚洲 基础设施投资
以 支持
宁 愿
界 定
下 行
伎 俩
ç š</w>
tigh ten</w>
滑 向
所有 这一切
福利 国家
pas sion
论 据
enorm ously</w>
ac kers</w>
了 欧洲
r ounds</w>
8 2</w>
实践 </w>
矛盾 的
了 这个
书 籍
le ap</w>
ac i
列 宁
by n</w>
官员 的
sac r
体现 </w>
斯坦 </w>
- year-old</w>
vi o</w>
而是 因为
read ers</w>
sh ut
快 乐
custom er</w>
众所周 知</w>
管理 和
over haul</w>
ve ter
了 不
铀 浓缩
背道而驰 </w>
防 范
即便 在
并 导致
os ama</w>
z ha
日本 政府
遗憾 的是</w>
spo ts</w>
定 价</w>
应该 为
― </w>
open -
实质 性的
自 2008年
constitu encies</w>
in come-
en sible</w>
迈 出了
matur ity</w>
互联网 </w>
的 主权
在 美国的
甘 地
齐 心协
战 士
替代 品</w>
prin ce</w>
的 方案
man n</w>
孩子 们
被 判
股 份
cauc asus</w>
c av
一小 撮
co in
汇 款
emb argo</w>
re structure</w>
ru th
hu b</w>
glo be</w>
资本 管制
min ute</w>
ar ities</w>
7 5
这 家
z ed
ta yl
坚 守
加 纳
den ounced</w>
还 为时
secu tive</w>
fran co-
i an-
sm es</w>
in ist</w>
3 50
致命 的
风暴 </w>
开启 了
掣 肘
优 质
的支持 率
莱 斯
con secutive</w>
多 人
同样 地</w>
理由 是
两 倍
会 谈</w>
marke t
亚马 逊
重 于
perce ive</w>
调 和
抑 制</w>
chemic als</w>
ib ly</w>
省 </w>
预 警
他们 希望
cr y</w>
在 巴勒斯坦
略 微
om bi
gather ed</w>
眼 下</w>
茨 </w>
op ted</w>
pl astic</w>
la sted</w>
unle ash</w>
象 棋
twent y</w>
cor byn</w>
环境 和
absolu tely</w>
我 希望
捕 捉
这 句
也 都
fa k
下 属
妇女 的
而 他们
而 我们
exec ution</w>
出 色</w>
成 效</w>
冷战 结束
ward- looking</w>
输 家</w>
特 点
环境 下
st up
食 物</w>
效率 的
超 额
n go</w>
感 情
金融 机构的
frankfur t</w>
bo e</w>
hard est</w>
扎 伊
br is</w>
和 大
世 人
三 种
职 务</w>
antim ic
dub ai</w>
witn essing</w>
这一 </w>
形 </w>
ch ess</w>
付出 代价</w>
我们 能
遭受 的
in ge</w>
prof lig
即便 如此</w>
conspir acy</w>
environ ments</w>
称 的
cr unch</w>
scre ening</w>
因此 在
的 信息</w>
必须 将
消费 和
科学家 们
def enses</w>
发展中 经济体
poss ession</w>
也是 最
自 民党
pa ul
nur ture</w>
南 </w>
明确 的</w>
ic eland</w>
全部 </w>
欧洲 需要
de vote</w>
二 次
偏 执
var ying</w>
in o</w>
反 犹
insurg ents</w>
descrip tion</w>
台湾 </w>
环境 中</w>
bon uses</w>
identi cal</w>
错 的</w>
step ped</w>
pre car
摇 摇
confu sion</w>
渔 业
争 端</w>
开始 了
舞台 上
古 典
near by</w>
透 露
nav y</w>
provo ked</w>
区 区
美国和 英国
政策制定 者们
通货膨胀 率
dro ps</w>
更加 难以
基础设施 的
佛罗 里
ch enko</w>
st ol
ad ds</w>
不难 理解</w>
从 经济
了一 条
可 是
a ire</w>
从 于
管理 层
在 短期
social- welfare</w>
它们 将
也 随之
而 未
而 他
其 政治
resum e</w>
社会 民主
所 造成
intr ac
engine er</w>
y les</w>
pip elines</w>
forth coming</w>
quie tly</w>
变得 日益
添 加
渺茫 </w>
fo x</w>
dra in</w>
for b
developing- country</w>
转移支付 </w>
cr um
near- zero</w>
postp oned</w>
tra its</w>
服 用
ce os</w>
她 在
推 测
两个 月
procu rement</w>
做出 反应</w>
bus y</w>
dis gu
reper cus
抬 头</w>
顾 问</w>
之 多</w>
的 后
discus sing</w>
pec uli
consequ ential</w>
便 已
proce eds</w>
\ </w>
var ieties</w>
g ay</w>
承担 了
有 余
19 29</w>
adap ted</w>
所 获得的
c iti
自 卫
萎靡 </w>
的 纳
也 越来越
sh u
这一 战略
夫 人
史 蒂
情形 中</w>
上 面
ac tionary</w>
tur ks</w>
但 他们的
wo es</w>
well- known</w>
comp el</w>
损失 的
是一 件
理 查德</w>
roc k</w>
落 后</w>
dub bed</w>
ab duc
退休 年龄
呼吁 </w>
对 政府
diaspor a</w>
spur ring</w>
黑 人
可以 帮助
quanti ties</w>
债务 水平
canad ian</w>
itiz ation</w>
这就 意味着
愤怒 的
没完 没了
多样 化</w>
该 机构
hus band</w>
欲 坠
own er</w>
5 4</w>
ir reversible</w>
h ass
灭 </w>
营 商
t led</w>
自 相
199 3年
imp ending</w>
正常 化</w>
加 工
它们 必须
re actor</w>
4 .5</w>
入 狱
电 </w>
教科 书
油 气
iss ance</w>
it e
发 出了
美国 公司
ur u
alloc ate</w>
¯ </w>
兰 克林
国际 合作
金 额
ten th</w>
的 经验
指 出了
人力 资本
arr ival</w>
顺 利
范 式
di m
就业 岗位</w>
天 真
op a
证券 </w>
发生 的</w>
modern ity</w>
diver g
最 早
在这样的 情况下</w>
s ad</w>
tric het</w>
伊 布
莫 拉
为 之
的 伊拉克
太 大</w>
frag ility</w>
lo aded</w>
一 揽子
约束 力的
fre er</w>
geo graphic</w>
co o
几 位
吸 纳
朔 伊布
坚持 认为
美国 需要
还 远未
借 鉴
历史 性
的人民 </w>
n es
entit lement</w>
一 战
巴黎 协定
or ously</w>
和 国内
的 土地
d ose</w>
j am
取消 了
则 会
的经济 和政治
es m</w>
accor ds</w>
um ental</w>
excep tionally</w>
北部 的
利 昂
repercus sions</w>
br illi
介 入</w>
伯 格
一段 时间</w>
cl ou
regist ered</w>
弹 性
连 锁
i alism</w>
jos é</w>
mer its</w>
criti cally</w>
pol it
它 已经
mess ages</w>
而 感到
好 比
im pris
银行 体系
的大 型
数 额
di arr
中 日
大 楼
课程 </w>
v an</w>
classi fied</w>
op pression</w>
对 象</w>
收 缩</w>
politi k</w>
可能 已经
的 措施
包括 对
lif y</w>
lit z</w>
军 的
加 尔
i us</w>
观 众
宏 大的
b c
去 了
stud ying</w>
rul es-based</w>
出 租
syn thetic</w>
transi t</w>
马斯 特里
的 担忧</w>
对 我
avoid ance</w>
com posed</w>
cyber space</w>
中 的</w>
相 结合
manip ulate</w>
und eni
欧洲 安全
提 议</w>
prohib ition</w>
navig ate</w>
了 这一点</w>
不振 </w>
意大利 和
购 物
各 不相同</w>
tayl or</w>
langu ages</w>
in competence</w>
maxim izing</w>
这种 说法
想 让
取代 了
有所 增加</w>
mistak en</w>
如果 政府
鼓 动
stu b
却 依然
肿 瘤
eradic ate</w>
响 </w>
att ended</w>
者 在
or ph
赌 博
re formed</w>
明确 地
保 住
aut umn</w>
1. 7</w>
20 ,000</w>
选举 中</w>
un avoidable</w>
复 国
intol er
andre w</w>
德 的
是 他们
de tail</w>
级 的
摇摇 欲坠
1 30</w>
impe ded</w>
re fin
流 感
ill nesses</w>
五 年</w>
doll ar-
基因 </w>
逃 脱
没有 哪个
小 说
无 核
美国 正在
之 久</w>
薄 熙
做到 这一点</w>
p enetr
才 能够
再 到
能 量</w>
将 增加
u ber</w>
在 196
p ast
cig are
cru cially</w>
10 万
自由 主义</w>
transfer red</w>
counter ed</w>
ed ings</w>
什么 呢</w>
自豪 </w>
高 涨
以来 一直
v on</w>
里斯本 条约</w>
中 得到
的 政府</w>
起诉 </w>
nation- states</w>
re balance</w>
多 大的
r ender</w>
small -
conflic ting</w>
无 异
i to</w>
俱乐 部</w>
金融 改革
原 材料
sil vio</w>
更 像
inspir ation</w>
6 月</w>
ir i</w>
菲 尔
19 50
reas suring</w>
这一 现象
下降 至
助 推
继续 下去</w>
一 块
禁 忌
wil son</w>
专 利</w>
critici ze</w>
他们 就会
来 支持
美国 所
假 </w>
就业 创造
plur alism</w>
重 获
cataly st</w>
最大 化
疗 法</w>
位 的
人民币 </w>
园 </w>
级 别
te es</w>
骚 扰
受到 影响</w>
态 势</w>
lin ers</w>
kin d
中 印
dec ides</w>
京都议定 书</w>
轨 道
几十年 的
提 倡
试图 将
四 十年
comp ly</w>
si oned</w>
巴 </w>
pe er</w>
不 时
男 孩
los es</w>
卡 尔</w>
关 </w>
亲 眼
制度 性
甚 微</w>
是 为
the irs</w>
educ ate</w>
耗 资
re payment</w>
支持 和
是 基于
double- digit</w>
th ough
accid ents</w>
可 言</w>
j .</w>
你 </w>
1 日
her self</w>
y uk
界 限
inqu ir
se ed</w>
correc tion</w>
proce edings</w>
depos itors</w>
常常 被
过 时的
欧洲央行 和
低 效
波 及
回 了
建 制
的 科学
财政 状况
步 入
大规模杀伤性 武器
交换 </w>
shoc king</w>
ques tioning</w>
plag ued</w>
ib es</w>
霍 乱
ci o</w>
和 解</w>
announ ce</w>
马 杜
sett ling</w>
pe t</w>
保护 主义</w>
ur o</w>
离开 </w>
不 禁
ha vens</w>
贫穷 </w>
privil ege</w>
波 特
v iv
有 用
é s</w>
10 月</w>
正常 的
大 革命
的经济 政策
irrig ation</w>
ve iled</w>
开始 的
表 态
美国 必须
in habit
汇率 的
gr id
det ect</w>
最 需要
三 角
最低 工资
的 前景
提供 资金
的 出口
以 美国
ld- be</w>
wou ld-be</w>
马斯特里 赫特
sym pathy</w>
国 会议员
阿卜杜 拉
pho to
o cr
乎 其
均衡 </w>
危机 后
ref uses</w>
的大 多数
胚 胎
a w</w>
per secution</w>
system ically</w>
人 认为
民粹 主义</w>
华 </w>
越来越多 的人
un c
名字 </w>
这一 问题的
东道 国
mer can
r yan</w>
发现 的
中 全
既 没有
promo tes</w>
作为 其
但 目前
co c
le one</w>
enrol l
avi an</w>
波兰 和
res emble</w>
sur passed</w>
incur red</w>
direc tors</w>
deb ated</w>
还 可能
很 高的
在 今天
恰 好
为 由
振 兴
trad e
可以 以
predic tion</w>
err a</w>
un fortunate</w>
应该 由
在 应对
保险 公司
u an</w>
ti fied</w>
cosmopol itan</w>
半 叶
不 动
shal e-
不可持续 </w>
决策 的
驻 扎
liter ature</w>
丹麦 </w>
抗 击
比 以前
让 经济
pr aise</w>
carm en</w>
exclu de</w>
的信 任</w>
ar i</w>
携 手
储备 货币
的 斗争
印度 洋
市场 力量
三 十
幸 存
precau tionary</w>
gu ine
antimic robial</w>
个 国家</w>
名 为
卢 卡
让 所有
初 步
ex ile</w>
plun ged</w>
ste ep</w>
jaz e
financial- sector</w>
su </w>
用 作
fla g</w>
大幅 削减
应对 措施
tw in</w>
将 取决于
占 到
也 只能
意义 上的
的 西方
apparat us</w>
支撑 </w>
总统 竞选
停 留在
fl ying</w>
的 胜利
理解 的</w>
highligh ting</w>
主要 经济体
世界 经济的
中国 海
employe e</w>
的问题 上</w>
课 </w>
consul tation</w>
ef sf</w>
欧盟 成员资格
的 迹象</w>
也不 愿
bu tt
也 曾
修正 案
粮食 </w>
瓦 解
贯 彻
193 3</w>
ol a</w>
head winds</w>
包容 </w>
手 旁
def enders</w>
再 平衡</w>
8 8</w>
volun te
à </w>
apar the
殆 尽</w>
boy cot
cl ashes</w>
神 社
远远 超过
为 1</w>
瓦 哈
stando ff</w>
的货币 政策</w>
脆弱 性</w>
至少 有
这 或许
asyl um-
宽 带
从一开始 就
divid end</w>
引入 了
细 节</w>
不 公
bur ned</w>
关于 如何
c du</w>
维 基
mee ts</w>
fier ce</w>
sh im
中国 与
但 又
对 美元
德国 政府
acknowled ging</w>
indeb tedness</w>
ai g</w>
多数 的
paraly zed</w>
franc isco</w>
获 益</w>
被 </w>
demonstr ation</w>
低 技能
生态 系统</w>
涌 现
recomm end</w>
enshr ined</w>
up side</w>
小 额
克萨 斯
gu ess</w>
核 弹
金融 服务
可再生 能源</w>
印 尼</w>
con qu
仍然 没有
条件 下</w>
实际上 是
当 美国
dis count</w>
爱 </w>
t ables</w>
普 尔
不 敢
fix ed-
而 导致
有 责任
nar endra</w>
throw ing</w>
tur ally</w>
马 丁</w>
和 支持
执 行的
本 质</w>
在 大部分
然 后</w>
定 的</w>
的 立场
群 岛
发现 自己
ban s</w>
every day</w>
us- china</w>
放 宽
整个 世界
cr ush
训练 </w>
输 送
成立 一个
世卫 组织
一 批
小 规模
199 7-
conduc ting</w>
充满 活力的
为什么 要
领导 下的
marke dly</w>
替代 方案
快 于
s ons</w>
sh ir
pati ence</w>
比如 说
职 能
incid ent</w>
利率 和
政治 上的
100 万
而 该
想 起了
k ad
盘 </w>
破坏 性的
大 受
令 其
实 证
收 取
道歉 </w>
研发 </w>
tril lions</w>
不 亚于
supervis ory</w>
ill iter
ex pedi
radic alism</w>
接 入
很 显然</w>
博 客
bene ath</w>
kis singer</w>
il a</w>
迟 迟
home owners</w>
dis mal</w>
来 帮助
问责 </w>
par ent</w>
可 悲
好 得多</w>
enroll ment</w>
细胞 </w>
agre es</w>
真实 </w>
愈演愈烈 </w>
联邦 储备
罪 犯
冲突 中
国民 阵线
out size</w>
pl o</w>
克 什
pres cr
def ended</w>
超越 了
访 问</w>
无 前
interven ing</w>
crow ds</w>
部 的
ver dic
贫困 线
相关 利益
尽管 美国
5 8</w>
大 坝
为 导向
extra ordinarily</w>
mer t</w>
ver b
此 人
jin tao</w>
失业 和
be ach</w>
将 有
话 题
研究 和
劣 势</w>
宪章 </w>
depriv ed</w>
si erra</w>
桑 托
dis closure</w>
明智 的</w>
pl en
贫穷 国家
lor ds</w>
parti cles</w>
ten able</w>
把 钱
200 5年</w>
通 用
e ter
公 信
给 美国
ra him</w>
ban non</w>
居民 </w>
preci ous</w>
capit als</w>
prohib ited</w>
de pres
turn out</w>
og ene
但 正如
创 伤
four -
dan iel</w>
b ad
它 能
health care</w>
y as
的 目的
h p
杀 虫
吨 </w>
支付 的
author ized</w>
comp as
dom ination</w>
car ney</w>
家园 </w>
受到 的
concep tion</w>
in tra-
产 出的
罗 纳德</w>
f its</w>
extr action</w>
wa h
轻 而易
症状 </w>
阿 勒
很 不
声称 </w>
exacerb ating</w>
2. 6</w>
20世纪 50年代
multip lier</w>
但 与
无疑 是
categ ories</w>
back drop</w>
moun tain</w>
swi ft</w>
pul led</w>
纯 属
施 压</w>
重大 影响</w>
fundament alists</w>
embr y
sacr ific
enthusi astic</w>
夺 取
x in
武装 </w>
也不 太
sur ging</w>
第 一步
5 6</w>
签署 的
k ick
prosecu tor</w>
虔 诚
前提 </w>
迷 于
极端 的
亚太 地区
国民 债务
比较 </w>
profess ors</w>
并 由
sk in</w>
发 病
自 然</w>
塞 族
犹太 人的
海 峡
dr ones</w>
印度 政府
流 亡
普京 </w>
可持续 </w>
ch au
at a</w>
hu g
201 8年
无法 通过
双边 贸易
寻求 庇护
全球 治理
不会 有
用 途
inde x
他 已经
明确 表示
卢 拉
最 令人
broad -based</w>
的人 都
第二次 世界大战
微 乎其
举 行</w>
rul er</w>
demonstr ators</w>
p 5</w>
泰 米尔
enter tainment</w>
妻 子
所 要
- country</w>
prevail s</w>
对 中国的
焦 虑</w>
r iding</w>
真 空
累 计
肆 意
的 担忧
领导 者
上 演
的 机构
symb ols</w>
ver ge</w>
ar t
inst all
mol ec
ol mert</w>
俄罗斯 和中国
种 子</w>
出 发
cros sing</w>
英国 选民
c ash
diversi fied</w>
7 0年
原则 的
in ward</w>
inv is
inhabit ants</w>
美国 是
金融 市场</w>
政客 和
succe eds</w>
w az
而 无法
朗 </w>
小组 </w>
reti red</w>
丧失 了
不 被
对 策</w>
conf used</w>
工业 </w>
h ill</w>
plan es</w>
伊朗 人
在 日本
头 上</w>
enjo ys</w>
进行 过
显示 了
言 辞
堕 胎
可 比
蔓延 到
ol dest</w>
aparthe id</w>
宣布 了
liqu id
jaze era</w>
des igning</w>
annex ation</w>
都 非常
为 全球
更 强
lifest yle</w>
deleg ation</w>
diarr he
bi o-
的人 口</w>
作 俑
administr ations</w>
也 面临着
c .</w>
sl aughter</w>
harb or</w>
asylum- seekers</w>
金融 企业
哈 马斯</w>
几 十年</w>
年轻 人的
le x
平 庸
fo ot</w>
对 该
更 有效地
总 而言之</w>
做 什么</w>
基础设施 投资</w>
frequ ency</w>
fisher ies</w>
ad mission</w>
灾 </w>
step hen</w>
或多 或
周年 纪念
2. 2</w>
sub jected</w>
rend ered</w>
先发 制
经济学家 们
一 面
ld p</w>
um i</w>
dev ice</w>
兆 </w>
重 演</w>
invis ible</w>
普通 民众
取得 进展</w>
始 作俑
我 是
枪 支
已经 取得了
196 2</w>
squ and
春 天
在未来 十年
cl ause</w>
的一 半
和 世界银行
无 序
巴基斯坦 和
nc d
最大 化</w>
inste in</w>
欧盟委员会 主席
en demic</w>
eval uation</w>
sympt om</w>
deep -
构 想
但 仍然
遭遇 了
了 这种
三驾马 车
史 无前
向 其
党 派</w>
倘 若
尽管 他
原 有
节 目
更 迭
remin is
geograph ical</w>
int ends</w>
jong- il</w>
c ements</w>
condi tionality</w>
发 起的
财政 整合
随着时间的推移 </w>
不足 的
道理 的</w>
fe aring</w>
在 巴黎
ho sted</w>
p ile</w>
bo on</w>
撤 军</w>
interven ed</w>
倒 退
旅游 业
cros sed</w>
investig ations</w>
spar ked</w>
per sian</w>
administ ered</w>
出口 商
突尼 斯</w>
失 踪
增强 了
il le</w>
日 俱
和 医疗
结 </w>
v s</w>
intrac table</w>
所有 者
在 现实
的人 群
加强 了
被 推翻
pow ell</w>
to o-
g all
extrem es</w>
伊斯兰 主义者
签 证
这 使
所 带来
embo died</w>
在过去 </w>
中 左翼
n ice</w>
落 到
distingu ished</w>
其中 大部分
马 利
高企 </w>
俄 国</w>
rig orous</w>
亨 利</w>
巴勒斯坦 人的
ky i</w>
基 辛格
右 派
gam ble</w>
新兴经济体 </w>
re distribu
从 长远
其 后
有 组织
对 政治
产 量的
mom ents</w>
in sists</w>
n apol
priv ately</w>
原 先
ha vo
200 9年</w>
所 采取的
病毒 </w>
flour ish</w>
有 用的
notor ious</w>
sp d</w>
un happy</w>
lever aging</w>
b iz
伊斯兰 革命
equ iv
纳税 人的
自由 流动
锋 相对
f ans</w>
dict ate</w>
国家 中
persist ently</w>
不 佳
高 效的
但 欧盟
gener ational</w>
p able</w>
默 许
不复 存在</w>
并 要求
卢 森
伊朗核 计划
永远 是
maj orities</w>
ak i</w>
inter ior</w>
夜 之间
四分 五
复 仇
end ow
共 担
transform ative</w>
缅甸 的
债务 国
以 失败
捕 获
in consistent</w>
占领 </w>
u a</w>
不 负责任
被 控
. e.</w>
newcom ers</w>
聪 明的
havo c</w>
ow es</w>
刑 </w>
jc po
时 至今
horr ific</w>
的 俄罗斯
re alization</w>
还有 很多
能 以
advant aged</w>
脱欧 </w>
repor ters</w>
而 如今</w>
遭受 了
twit ter
可以 是
的 效果
舞 台</w>
可 </w>
的 货币政策
转 为
迈 进</w>
自 私
还 未
而 德国
medic aid</w>
高 加索
divor ce</w>
世界上 最大的
发 酵
v ess
ul ted</w>
讲 话</w>
o be
只 在
将 他们
puzz le</w>
福祉 </w>
teh ran</w>
关闭 </w>
se vent
体 面
阿 塞
宏观经济 政策
fant asy</w>
can n
st aying</w>
合 并
prev entable</w>
将 美国
上 都
p -
第 一位
我们 是
hug ely</w>
roc ket</w>
对 国际
op t</w>
平民 </w>
sunni -
dis advantage</w>
死 灰
ref rain</w>
heigh ts</w>
并不 总是
确保 了
黑 客
2000年 </w>
四 处
israel -
回答 </w>
投资 组合
决策 者</w>
联 酋
腐 蚀
鸦 片
persu aded</w>
贫 富
dec ou
令人 失望</w>
说 过
死灰 复燃
而 不会
ow itz</w>
decreas ed</w>
bu ffer</w>
不 安全
ish ments</w>
不 成
并 向
受 制
hy br
听 </w>
trans c
impor ting</w>
受 欢迎
的 极端
希腊 债务
su u</w>
conventi ons</w>
automob ile</w>
看 不
劳 </w>
hypo cris
还要 多</w>
当 成
discre tionary</w>
免 遭
com promised</w>
重点 放在
环境 保护
inv ention</w>
一个 新
减少 对
中 也
回 收
都 有可能
阿 联酋
自由 化的
这是 否
advers aries</w>
接触 </w>
all ah</w>
sup pression</w>
pre domin
结构 的
附 带
欧洲 和美国
勇 气</w>
out lays</w>
ch ev</w>
p ages</w>
史 </w>
or ange</w>
军 费
t ap</w>
col or</w>
章 </w>
宪法 的
non- governmental</w>
metaph or</w>
基 辅
因 其
只有 1</w>
过度 负债
加沙 的
glu t</w>
kh rush
khrush chev</w>
sid er</w>
普 罗
出口 国</w>
感 受
stig litz</w>
都 是在
德黑 兰
乌 拉圭
医院 </w>
马来 西亚</w>
分 钟
仅 靠
ma ker</w>
这 还
reform ist</w>
东 海
olog ist</w>
千年发展 目标
裁 定
consum er-
k i-
里 约
自 上而
玉 米
对 所有
sd g
达成 协议
原因 很简单</w>
coun ting</w>
经 </w>
房 子
工资 增长
expor ted</w>
在 欧元区
佛罗里 达
fe eding</w>
克 莱
气候 </w>
superi ority</w>
on ian</w>
和 发展中国家
而 政府
还 存在
deut sch
后 者</w>
登 上
oc k</w>
war n</w>
stun ning</w>
mor ning</w>
predic ting</w>
寄 希望
创始 人
竞争 对手</w>
bo ats</w>
cor responding</w>
tr acking</w>
innov ate</w>
富 兰克林
得 起
形成 一个
欧盟 必须
达成 共识</w>
mobil izing</w>
fundament alist</w>
re iter
hypocris y</w>
而 对于
采取 更
不 一定
under valued</w>
克林顿 </w>
战 场
每 月
特别是 对
inv aded</w>
球 员
el- qaddafi</w>
si ege</w>
军事 行动</w>
申 根
债务 人
an tar
去 监管
经 费
out weigh</w>
部分 是因为
mu ham
s wa
齐 </w>
就业 的
距离 </w>
缓 </w>
手 里</w>
行 不
196 8</w>
英雄 </w>
co ol</w>
气 氛
季 度</w>
mach in
198 7</w>
一个 月
宝贵 的
商 店
l agging</w>
cc s</w>
几年 中
因此 我们
ec ho
pr ague</w>
也 并非
compl ain</w>
取 缔
千年发展 目标</w>
jeopardi ze</w>
协 会</w>
极端 贫困
袖 手旁
iti vely</w>
enrich ed</w>
过剩 </w>
北 约</w>
滥 用</w>
远 程
cul ar</w>
differ enti
总统 和
fe at
rec ycl
en ch
在我 看来</w>
体系 中
和 他们的
罗塞 夫
避 开
住房 </w>
macro -
四分 之三
菲 尔德
共 鸣
gl or
ro hing
之争 </w>
有 价值的
这样的 国家
tis sue</w>
显 露
失败 了</w>
den s
一个 关键
平 </w>
和 美国的
s k</w>
主义 者的
提出 的</w>
便 利</w>
2. 3</w>
s ement</w>
fe at</w>
ief ly</w>
reminis cent</w>
放 贷
armen ia</w>
academ y</w>
照 片
h amp
俄罗斯 天然气
5 000
前 夕
经济学家 的
天安 门
临 界
高 官
同 步
道 的
bhut to</w>
数字 化
suscep tible</w>
克 斯</w>
ill icit</w>
正 面临
以及 如何
coff ee</w>
optim ists</w>
f at</w>
res ur
essi mis
以及 美国
纺 织
asset- price</w>
distr ict</w>
pun ished</w>
佛 </w>
prov ing</w>
偏 好</w>
职业 生涯
提供 一个
dis en
高级 官员
其他 任何
来 了</w>
dis regard</w>
m o</w>
suppor tive</w>
投 向
受损 </w>
oligarch s</w>
中国 的经济
餐 </w>
但是 却
李 克
out breaks</w>
形成了 鲜明
也 使
讽刺意味 的是</w>
的 不同
bah rain</w>
7 2</w>
注意 力</w>
游击 队
方面 取得了
depend ed</w>
sub mitted</w>
ific ations</w>
模糊 </w>
ham per
不 定</w>
超级 大国</w>
tend encies</w>
完全 没有
particip ated</w>
界 限</w>
枪 击
mad uro</w>
在 国会
enjo ying</w>
是 没有
我们 这个
唯 有
artific ially</w>
异 见
觉 醒
产 权</w>
世界 中</w>
un changed</w>
m ps</w>
二氧化碳 </w>
clean er</w>
hon est
因为 美国
建设 性的
t ants</w>
经济 中
作为 一种
的 联系</w>
截然 不同</w>
dyn asty</w>
大 衰退
保持 了
翻 番</w>
来 形容
9 7</w>
赫鲁 晓
sign ation</w>
悖 论</w>
明智 </w>
不 让
信 念</w>
w er
的一 段
新 西
扮演 着
完全 不同的
fram ed</w>
社会 中
期 货
阿尔巴 尼亚
yel low</w>
over due</w>
essimis tic</w>
化石燃料 </w>
论 调
的 概念</w>
动 物</w>
抵 挡
201 5年</w>
19 20</w>
的 标准
特别是 考虑到
罕 见
per verse</w>
diff usion</w>
作 战</w>
defici encies</w>
戈 登</w>
ap ing</w>
将 注意力
以 其
十分 困难</w>
shor tly</w>
直 至
自然 灾害
慕尼黑 </w>
主导 地位</w>
空 军
亿万 富翁
人均 gdp
改革 派
后 才
域 </w>
198 8</w>
tal ents</w>
cle ver</w>
pro secution</w>
欢 呼
但 政府
平均 水平</w>
的大 选
dur ation</w>
临 近
p essimistic</w>
但是 他们
en sured</w>
廉价 的
数以 百万
绕 过
是 不可能的</w>
elev ated</w>
其他 许多
敏 感</w>
说 得
对 策
于 此</w>
持 不同
contradic tion</w>
ou tw
逍 遥
几年 前</w>
mar x</w>
埃 尔</w>
sho oting</w>
含 糊
布 托
sam u
w arm
tax ed</w>
那 就
re pa
将 超过
per cent</w>
hand ling</w>
de vi
c ow
经济增长 率
法国和 德国
攀 升
新 药
税 务
素 </w>
和 在
inst alled</w>
几年 中</w>
除 外</w>
你 会
令人 奇怪</w>
时 就
金 斯
营 利
hegem onic</w>
丝绸 之路
full- time</w>
在一 年
anti-semiti sm</w>
pre occupied</w>
伊斯兰教 的
preval ence</w>
unfol ding</w>
experim ental</w>
jer emy</w>
高 得多</w>
democr ati
的 失败
麦肯锡 全球
天 才
被 要求
也 最
patri otic</w>
两 难
正义 </w>
的 更
边缘 化</w>
和 土耳其
体制 的
suppl ying</w>
价值 链
prud ence</w>
那 摩
将会 在
pro sp
ti bility</w>
发生 了</w>
al g
ug ly</w>
去 的
代 人的
扶 贫
但 特朗普
教授 </w>
领导 力</w>
得 的
生 效
pl ague</w>
predomin antly</w>
广泛 </w>
writ ers</w>
掌握 了
dat ab
的 同
米 洛
尽管 这一
fool ish</w>
说 他
结束 的
业 绩
接 替
国际 机构
head line</w>
pen alties</w>
授 权</w>
兵 </w>
能源 价格
集体 行动
和 实施
air port</w>
蒙 特
financi ers</w>
lux emb
pleas ant</w>
几 百
当局 </w>
working- class</w>
5 月</w>
南 苏丹
轮 值
under scores</w>
ess ly</w>
灵 魂
pe ter
ne oliber
rati fication</w>
tian an
uru gu
的 部分
核 反应堆
e o</w>
小 泉
而 事实上</w>
和 管理
忌 惮
nc ds</w>
不 抵
表 演
体 重
hero ic</w>
m igh
巴勒斯坦 的
可 行</w>
来 维持
中 右翼
sequ ence</w>
熟 练
选择 是
在 哪里</w>
总 需求</w>
in ner</w>
traum a</w>
作 品
了 道路</w>
consequ ently</w>
publ ish</w>
sub ordin
machin ery</w>
turbul ence</w>
局 面的
j eff
思 </w>
演 习
plan e</w>
未来 十年
如此 多的
ref er</w>
jihad ists</w>
out dated</w>
真 寺
发表 的
fron ti
清 真寺
让 政府
ab ao</w>
ji abao</w>
c bo</w>
关塔 那摩
反过来 又
地球 上
个人 和
privileg es</w>
转 化
强烈 反对
促进 了
institu tion
lob by
这些 新
权 势
第二 种
演讲 中
深刻 </w>
plas tics</w>
据 估计</w>
组 </w>
多元 化的
shoc ked</w>
be at
h all
与 中国的
objec tions</w>
bacter ia</w>
impris oned</w>
pric e-
本 可以
reas ser
范围 内的
首 尔</w>
8 6</w>
sh op</w>
房地产 泡沫
g ore</w>
uni qu
w isely</w>
犯 下的
带 头
kar l</w>
典 范</w>
relati ves</w>
一样 的</w>
flo ating</w>
阴 影
titu de</w>
bro ker</w>
国 神社
无异 于
提 案</w>
re signation</w>
利益 集团
g ift</w>
悬 而未
pay roll</w>
认为 这是
sha h</w>
困扰 着
塞拉 利昂
旧 金
路 易
stre tch</w>
确定 的
学家 </w>
var ou
拥有 了
做些 什么</w>
wh it
ex pressing</w>
联邦 基金
p ir
del icate</w>
传染 病</w>
来 的</w>
inv al
高 技能
lower- income</w>
创造 一个
会晤 </w>
amoun ting</w>
back ward</w>
continu ity</w>
合 乎
丈 夫
家 人
iner tia</w>
挤 出
的新兴 市场
这 两者
值得 注意
年 初
米 兰</w>
disap pointment</w>
即使 是在
repu di
ac cr
容易 受到
在 希腊
使 </w>
sp in</w>
仍 处于
教 堂
几 千
尽管 中国
政府 债券</w>
independ ently</w>
ban g</w>
做 出</w>
贩 毒
rein forces</w>
soci o
y a
acceler ation</w>
lob by</w>
rena issance</w>
并 开始
dis orderly</w>
科学家 </w>
隔 绝
ow ning</w>
如果 有
眼 中
反映 </w>
乌 里
破 裂</w>
万 美元</w>
重新 思考
信息 技术
倡 议</w>
p ne
pne um
警察 </w>
诉 </w>
civil ized</w>
proced ure</w>
金融 交易
笔 者
accommod ation</w>
100 年
蚊 子
fro zen</w>
在 某种
tyrann y</w>
re paid</w>
所在 的
蓝 图</w>
real m</w>
多 达
共产 主义的
清洁 能源
网络 的
从而 为
美国 经济的
protec ts</w>
蹂 躏
反 美
他 会
fast est</w>
理想 的
宗教 信仰
无关紧 要</w>
im poses</w>
恢复 了
respond ents</w>
一 边</w>
这 并不意味着
我们 从
c ely</w>
disco veries</w>
one- fifth</w>
困难 的
mur dered</w>
需要 对
per il</w>
依然 存在</w>
指引 </w>
ingredi ents</w>
pa thetic</w>
spec ified</w>
但这 并不意味着
cred entials</w>
有 多么
持 怀疑
separati st</w>
它 与
全 职
narrow ly</w>
bo y</w>
subst an
地球 </w>
substan tive</w>
持久 </w>
end ants</w>
che str
or chestr
自 称
的 难民
nerv ous</w>
celebr ated</w>
sign atories</w>
的年 度
但 上述
身 边
ang an</w>
热 门
discour aging</w>
ul ous</w>
总体 上
sac red</w>
不 为
亚洲 金融危机
pul ling</w>
转折 点</w>
脆弱 性
毁 </w>
ph eric</w>
对 这种
产 能</w>
prim acy</w>
bas ically</w>
tianan men</w>
会 增加
真正 的问题
总 之</w>
ten ment</w>
enligh tenment</w>
2. 7</w>
coordin ating</w>
liber ia</w>
经济 和金融
测 验
gü len
那 以后</w>
国 外的
不久 前</w>
疑 虑</w>
ste am</w>
几乎 肯定会
失 误</w>
5 ,000
compl ement</w>
飞 行
第 六
不仅 包括
relig ions</w>
under cut</w>
拥 挤
治疗 的
困境 的
neighbor hoods</w>
pass es</w>
k em
监狱 </w>
亚 的
比如 在
197 8</w>
ac ity</w>
主导 </w>
身份 的
达成 一致
尼日利亚 </w>
过程 中的
re consider</w>
ki- moon</w>
我 相信
ear ly-
cur ve</w>
公务 员
阿塞 拜
阿塞拜 疆
会 引发
的 选票</w>
advanc ement</w>
抑郁 症
surv iv
之 上的
政府 与
每 周
历史 性的
ar de</w>
需要 时间</w>
rap e</w>
恐怖 袭击</w>
meas ur
能 将
走 到
kash mir</w>
待 </w>
总 数
在 大多数
人群 </w>
视 作
十年 期
卫生 </w>
范 例</w>
grass roots</w>
不 稳定的
med d
4 4
inter dependent</w>
目标 和
但 最终
question able</w>
8 1</w>
完全 可以
的 监管
财政 政策的
平 方
或多或 少
kir ch
发电 厂
也 出现了
接近 </w>
的 改革</w>
pro active</w>
复杂 性
明智 地
标志 性
ban ker</w>
赔 偿
马杜 罗
抵消 </w>
罗 夫
班 农
c asting</w>
vir al</w>
hit ting</w>
疑 问</w>
理 工
倒 退</w>
奖 </w>
向 下
elig ible</w>
观 看
束 手无
用 途</w>
对待 </w>
ag ent</w>
印度尼 西亚
被 忽视
参与 的
mo z
jo int
bur n</w>
受制 于
掩盖 了
pleas ure</w>
现在 正在
三 个月
也 应当
最 主要的
极端 主义的
执政 联盟
5 亿
强 行
发布 的
农村 地区
会 为
无 助于
g if
os borne</w>
负 利率
endanger ed</w>
g f
但 至少
抗 拒
l es
lag arde</w>
欧佩 克
在 如此
京都议定 书
迈 出
媒体 和
ann u
作 出了
hab it</w>
坏 消息</w>
生产率 和
off -
谁 来
obs ession</w>
羊 </w>
em ir
都 可能
par ano
ar ena</w>
网站 </w>
团队 </w>
由此 产生的
analy tical</w>
这样一 来</w>
adver tis
不可持续 的</w>
强 权
em powering</w>
plun ge</w>
im prison
德国 经济
中 华
wolf gang</w>
拉美 国家
ass er</w>
int enti
赶 上
可 疑
dispos able</w>
但 日本
这 并非
s ong</w>
供给 侧
varou fak
varoufak is</w>
国际 组织
划 定
向 世界
生育 率
跨太平洋 合作伙伴关系</w>
精神 的
饥饿 </w>
f ever</w>
关 乎
欧洲 国家</w>
维 埃
中 美洲
一代 人
al ib
乌 托
四分 之一</w>
socio economic</w>
mac ro</w>
tr an
轻 微
又 在
y n</w>
grid lock</w>
land -
200 6年</w>
披露 </w>
americ as</w>
ti pping</w>
serv ants</w>
主要 来自
nutr iti
一 月
it ant</w>
fu tile</w>
disap pointed</w>
enc y-
pa ths</w>
fer tile</w>
是 由于
油 田
ab ad</w>
所 指出的</w>
犹太 复国
dissid ents</w>
这笔 钱
家庭 收入
recover ing</w>
同 期
perspec tives</w>
cr us
没 </w>
st um
3. 2</w>
nostalg ia</w>
prosp er</w>
成 分</w>
斯堪 的纳
ul ent</w>
领导 人们
大 都
正常 </w>
利 比
资 不抵
出 不
自 力更
hard ship</w>
苏联 </w>
之一 就是
hol iday</w>
性别 平等
抑制 了
捐 款
不会 在
完善 </w>
in compatible</w>
re tains</w>
下跌 了
disrup ted</w>
并非 所有
post- world</w>
屈服 于
un comfortable</w>
侵犯 </w>
仿 佛
k ingly</w>
共和党 的
启 蒙
engine ered</w>
inquir y</w>
vig orous</w>
re tained</w>
he ter
sensi tivity</w>
癌症 </w>
许多 国家的
钦 斯基
悲 哀
迷 失
加入 欧盟的
贫 民
菲律宾 </w>
interpre t</w>
另 一项
expl ore</w>
m gi</w>
用 以
urugu ay</w>
也 意味着
198 5</w>
做好 准备
令人 不
piec es</w>
占 世界
责 </w>
哥伦比亚 </w>
mis management</w>
这 给
e k
take over</w>
所 导致
应该 如何
削减 了
泄 露
weak ens</w>
向 中国
roc ke
减 贫
¼ </w>
catal onia</w>
在 家
bl essing</w>
我 和
7 4</w>
力 求
支持 这一
的 需要</w>
9 8</w>
民主 化
pan demic</w>
魁 祸
prac ti
是 他
班 加
我 也
ent ang
modern izing</w>
jurisdic tions</w>
fra ught</w>
的高 级
fasc ist</w>
re h
con sp
ac ed</w>
balance-of- payments</w>
召 集
sh ell</w>
而 如今
世界 中
ic ket</w>
宗教 和
imprison ment</w>
charis matic</w>
而 由于
vic tor
3 9
博 士
擅 长
本 能
心 目
fo oting</w>
认识 到了
champ ions</w>
如果 这一
oper ated</w>
生 计
s lack</w>
而 与此同时</w>
rohing ya</w>
vil le</w>
之 势
mathemati cs</w>
没有 被
纽约 时报</w>
pe g</w>
茶 党
200 ,000</w>
输 入
要 实现
hard line</w>
为 代价
罪 名
在 二十世纪
整个 地区
as tically</w>
ic ism</w>
deb acle</w>
也 能够
197 3年
沙 文
al as</w>
邮 件
这是 一项
会 面
sor ts</w>
习惯 于
iz umi</w>
每 年的
那么 我们
双方 的
practi tion
挫 折</w>
cypri ot</w>
同盟 </w>
stil l-
工人 和
re productive</w>
心 理</w>
gl ass
dem and-
describ ing</w>
他 可以
20 50年
良 多</w>
dos es</w>
瓦哈 比
罢 了</w>
英镑 </w>
loc ate</w>
的 公众
200 9年的
南 中国海
trad es</w>
坦 桑
ra ft</w>
认为 自己
而这 正是
资产 和
这样 才能
可 用于
en n
k istan</w>
minist erial</w>
的 错误
匈牙 利</w>
政 见
也 因为
tibet an</w>
继续 保持
ur ibe</w>
常 识
在 我们的
restric tive</w>
特别提款 权
家庭 和
qual ities</w>
连 通
节 能
har am</w>
实 时
198 4</w>
ling u
0. 1</w>
de vo
反 之</w>
awar ded</w>
偏 远
那 场
一切 </w>
in form</w>
济 于
mar t</w>
把 他们
八 国集团
老年 人
阿 里</w>
临 近</w>
赞 赏
来 确保
re jects</w>
的 好
主权 国家
对 这个
mus eu
合 约
机器 </w>
withdraw n</w>
water shed</w>
soci alists</w>
近年 来</w>
将 最终
拿 破
ag on</w>
中 指出</w>
从长期 看</w>
趋势 的
defin es</w>
militar y-
尼 尔</w>
破灭 </w>
wor l
worl ds</w>
neg lig
讨 厌
已经 发生了
活动 家
un surprisingly</w>
对立 </w>
印度 教
争论 的
里 克</w>
wh o
分配 给
ak an</w>
multi polar</w>
un regulated</w>
可以 作为
世界 上的
ass ment</w>
我们 认为
什么 样
bloc ks</w>
威 廉
多样 化的
恐怖 分子</w>
将 因此
病 的
mil d</w>
199 6年
原 料
od d</w>
透明 的
伙伴 国
立场 的
眼 中的
拿破 仑
r im
效 力</w>
通胀 目标</w>
allevi ate</w>
强制 性
拍 卖
事故 </w>
较 高
persist ence</w>
portr ay</w>
不 休
hot el</w>
pre tend</w>
电 信
自由 地
伊朗 在
欧元 债券
天 赋
7 ,
糟 </w>
tal ked</w>
ultra- low</w>
c it
生活 在一个
并不 需要
se arching</w>
爱 的
越 多</w>
看 见
speci alists</w>
suppl em
突 发
流 入</w>
控制 和
高 涨</w>
节 节
n ord
constr ain</w>
累 进
fis cal-
sh ops</w>
197 2</w>
为了 实现
那些 </w>
sen kak
格 的
fle e</w>
四 倍</w>
名义 利率
e hu
的最 初
就 得
制造 </w>
缩 小</w>
与其 说是
我们 不应该
tan z
由 政府
既 不
赫鲁晓 夫
ak ers</w>
另 有
exc iting</w>
scr am
nt c</w>
工厂 </w>
在一 段
资金 和
mon archy</w>
row s</w>
价格 和
必要 条件</w>
谈判 桌
老 板
医疗 和
带 动
imagin able</w>
retali ation</w>
在200 0年
argent ine</w>
us eless</w>
ad m
兴 起
顶峰 </w>
并 被
t us</w>
单 位</w>
其中 许多
这 显然
各自 为
受 灾
thre w</w>
war time</w>
结构 和
power house</w>
分裂 的
u tility</w>
远远 超过了
信任 的
经济 发展的
sel ective</w>
int act</w>
jan et</w>
inf am
完整 的
u 00
成百上 千
man -
en comp
刻 意
为了 应对
manip ulated</w>
resem bles</w>
compar ing</w>
av ed</w>
cur tail</w>
en e</w>
宏观 审慎
triv ial</w>
d ating</w>
one- quarter</w>
资产 泡沫
ch am
莫斯科 </w>
if ies</w>
r .</w>
ko izumi</w>
通 向
随 后</w>
3 ,000
迅速 地
完善 的
竟 然
日益 增长的
muham mad</w>
屠杀 </w>
增 量
ph ate</w>
mix ture</w>
coll ar</w>
的主要 原因</w>
生 长
报告 的
hur d
的 年轻
collap ses</w>
反 周期
就 不能
吞 噬
mar ried</w>
和 货币
委员会 主席
眼 中</w>
succ umb
两 场
ye ar
s pot
vo y</w>
丧 失</w>
chin ese-
2. 4</w>
low s</w>
宏 伟
clin ics</w>
un i</w>
解决 问题
场 所
资 深
respon ds</w>
相去 甚远</w>
另外 一种
diagnos ed</w>
pneum onia</w>
拉 脱
审 计
建立 了一个
的 未来</w>
弊 </w>
说 明</w>
ed ward</w>
short- lived</w>
be ts</w>
的 共和党
万 人</w>
的 法国
貌 似
as -
自由贸易 </w>
b ach
成绩 </w>
中国 必须
到20 20年
军 人
以及 与
政策 利率
高 额
寄希望 于
gr ams</w>
弹 劾
market place</w>
工作 时间
却 无法
bl aming</w>
应该 采取
等 级
upheav al</w>
最 重要
western -
光 明
支持 了
无动于衷 </w>
低 通胀
欧 </w>
床 </w>
有人 认为
财 阀
fas cism</w>
仅 占
strength ens</w>
ev ac
诉 诸
政府 都
恐惧 和
proper ties</w>
乐观 的
jeopardi zing</w>
他们 没有
了 新的
demo graph
所得 税</w>
in coming</w>
pre emp
新兴 市场</w>
制造 业</w>
的 讨论
ic ating</w>
方式 来
真 心
马 哈
ar ts</w>
关系 到
替 罪
的 独立
一小 部分
sub mit</w>
sque eze</w>
2010年 的
私人 投资</w>
时至今 日</w>
远 超
霍 尔
read iness</w>
权 宜
re sign</w>
conver t</w>
愈 加
牵涉 到
军事 政变
sh opping</w>
伊朗的 核
ar row</w>
处 置
下一 任
pe d
对 准
ehu d</w>
[...]
